{
  "version": "1.0",
  "truncation": null,
  "padding": null,
  "added_tokens": [
    {
      "id": 0,
      "content": "[PAD]",
      "single_word": false,
      "lstrip": false,
      "rstrip": false,
      "normalized": false,
      "special": true
    },
    {
      "id": 1,
      "content": "[UNK]",
      "single_word": false,
      "lstrip": false,
      "rstrip": false,
      "normalized": false,
      "special": true
    },
    {
      "id": 2,
      "content": "[CLS]",
      "single_word": false,
      "lstrip": false,
      "rstrip": false,
      "normalized": false,
      "special": true
    },
    {
      "id": 3,
      "content": "[SEP]",
      "single_word": false,
      "lstrip": false,
      "rstrip": false,
      "normalized": false,
      "special": true
    }
  ],
  "normalizer": null,
  "pre_tokenizer": {
    "type": "Whitespace"
  },
  "post_processor": null,
  "decoder": null,
  "model": {
    "type": "BPE",
    "dropout": null,
    "unk_token": "[UNK]",
    "continuing_subword_prefix": null,
    "end_of_word_suffix": null,
    "fuse_unk": false,
    "byte_fallback": false,
    "ignore_merges": false,
    "vocab": {
      "[PAD]": 0,
      "[UNK]": 1,
      "[CLS]": 2,
      "[SEP]": 3,
      "!": 4,
      "\"": 5,
      "#": 6,
      "$": 7,
      "%": 8,
      "&": 9,
      "'": 10,
      "(": 11,
      ")": 12,
      "*": 13,
      "+": 14,
      ",": 15,
      "-": 16,
      ".": 17,
      "/": 18,
      "0": 19,
      "1": 20,
      "2": 21,
      "3": 22,
      "4": 23,
      "5": 24,
      "6": 25,
      "7": 26,
      "8": 27,
      "9": 28,
      ":": 29,
      ";": 30,
      "<": 31,
      "=": 32,
      ">": 33,
      "?": 34,
      "@": 35,
      "A": 36,
      "B": 37,
      "C": 38,
      "D": 39,
      "E": 40,
      "F": 41,
      "G": 42,
      "H": 43,
      "I": 44,
      "J": 45,
      "K": 46,
      "L": 47,
      "M": 48,
      "N": 49,
      "O": 50,
      "P": 51,
      "Q": 52,
      "R": 53,
      "S": 54,
      "T": 55,
      "U": 56,
      "V": 57,
      "W": 58,
      "X": 59,
      "Y": 60,
      "Z": 61,
      "[": 62,
      "\\": 63,
      "]": 64,
      "^": 65,
      "_": 66,
      "`": 67,
      "a": 68,
      "b": 69,
      "c": 70,
      "d": 71,
      "e": 72,
      "f": 73,
      "g": 74,
      "h": 75,
      "i": 76,
      "j": 77,
      "k": 78,
      "l": 79,
      "m": 80,
      "n": 81,
      "o": 82,
      "p": 83,
      "q": 84,
      "r": 85,
      "s": 86,
      "t": 87,
      "u": 88,
      "v": 89,
      "w": 90,
      "x": 91,
      "y": 92,
      "z": 93,
      "{": 94,
      "|": 95,
      "}": 96,
      "~": 97,
      "": 98,
      "¡": 99,
      "¢": 100,
      "£": 101,
      "¤": 102,
      "¥": 103,
      "¦": 104,
      "§": 105,
      "¨": 106,
      "©": 107,
      "ª": 108,
      "«": 109,
      "¬": 110,
      "­": 111,
      "®": 112,
      "¯": 113,
      "°": 114,
      "±": 115,
      "²": 116,
      "³": 117,
      "´": 118,
      "µ": 119,
      "¶": 120,
      "·": 121,
      "¸": 122,
      "¹": 123,
      "º": 124,
      "»": 125,
      "¼": 126,
      "½": 127,
      "¾": 128,
      "¿": 129,
      "À": 130,
      "Á": 131,
      "Â": 132,
      "Ã": 133,
      "Ä": 134,
      "Å": 135,
      "Æ": 136,
      "Ç": 137,
      "È": 138,
      "É": 139,
      "Ê": 140,
      "Ë": 141,
      "Ì": 142,
      "Í": 143,
      "Î": 144,
      "Ï": 145,
      "Ð": 146,
      "Ñ": 147,
      "Ò": 148,
      "Ó": 149,
      "Ô": 150,
      "Õ": 151,
      "Ö": 152,
      "×": 153,
      "Ø": 154,
      "Ù": 155,
      "Ú": 156,
      "Û": 157,
      "Ü": 158,
      "Ý": 159,
      "Þ": 160,
      "ß": 161,
      "à": 162,
      "á": 163,
      "â": 164,
      "ã": 165,
      "ä": 166,
      "å": 167,
      "æ": 168,
      "ç": 169,
      "è": 170,
      "é": 171,
      "ê": 172,
      "ë": 173,
      "ì": 174,
      "í": 175,
      "î": 176,
      "ï": 177,
      "ð": 178,
      "ñ": 179,
      "ò": 180,
      "ó": 181,
      "ô": 182,
      "õ": 183,
      "ö": 184,
      "÷": 185,
      "ø": 186,
      "ù": 187,
      "ú": 188,
      "û": 189,
      "ü": 190,
      "ý": 191,
      "þ": 192,
      "ÿ": 193,
      "Ā": 194,
      "ā": 195,
      "Ă": 196,
      "ă": 197,
      "Ą": 198,
      "ą": 199,
      "Ć": 200,
      "ć": 201,
      "Ĉ": 202,
      "ĉ": 203,
      "Ċ": 204,
      "ċ": 205,
      "Č": 206,
      "č": 207,
      "Ď": 208,
      "ď": 209,
      "Đ": 210,
      "đ": 211,
      "Ē": 212,
      "ē": 213,
      "ĕ": 214,
      "Ė": 215,
      "ė": 216,
      "Ę": 217,
      "ę": 218,
      "Ě": 219,
      "ě": 220,
      "Ĝ": 221,
      "ĝ": 222,
      "Ğ": 223,
      "ğ": 224,
      "Ġ": 225,
      "ġ": 226,
      "Ģ": 227,
      "ģ": 228,
      "Ĥ": 229,
      "ĥ": 230,
      "Ħ": 231,
      "ħ": 232,
      "Ĩ": 233,
      "ĩ": 234,
      "Ī": 235,
      "ī": 236,
      "ĭ": 237,
      "Į": 238,
      "į": 239,
      "İ": 240,
      "ı": 241,
      "Ĵ": 242,
      "ĵ": 243,
      "Ķ": 244,
      "ķ": 245,
      "ĸ": 246,
      "Ĺ": 247,
      "ĺ": 248,
      "Ļ": 249,
      "ļ": 250,
      "Ľ": 251,
      "ľ": 252,
      "Ŀ": 253,
      "Ł": 254,
      "ł": 255,
      "Ń": 256,
      "ń": 257,
      "Ņ": 258,
      "ņ": 259,
      "Ň": 260,
      "ň": 261,
      "ŉ": 262,
      "Ŋ": 263,
      "ŋ": 264,
      "Ō": 265,
      "ō": 266,
      "ŏ": 267,
      "Ő": 268,
      "ő": 269,
      "Œ": 270,
      "œ": 271,
      "Ŕ": 272,
      "ŕ": 273,
      "Ŗ": 274,
      "ŗ": 275,
      "Ř": 276,
      "ř": 277,
      "Ś": 278,
      "ś": 279,
      "Ŝ": 280,
      "ŝ": 281,
      "Ş": 282,
      "ş": 283,
      "Š": 284,
      "š": 285,
      "Ţ": 286,
      "ţ": 287,
      "Ť": 288,
      "ť": 289,
      "Ŧ": 290,
      "ŧ": 291,
      "ũ": 292,
      "Ū": 293,
      "ū": 294,
      "ŭ": 295,
      "Ů": 296,
      "ů": 297,
      "ű": 298,
      "Ų": 299,
      "ų": 300,
      "Ŵ": 301,
      "ŵ": 302,
      "Ŷ": 303,
      "ŷ": 304,
      "Ÿ": 305,
      "Ź": 306,
      "ź": 307,
      "Ż": 308,
      "ż": 309,
      "Ž": 310,
      "ž": 311,
      "ſ": 312,
      "Ɓ": 313,
      "Ɔ": 314,
      "ƈ": 315,
      "Ɗ": 316,
      "Ƌ": 317,
      "ƌ": 318,
      "Ǝ": 319,
      "Ə": 320,
      "Ɛ": 321,
      "ƒ": 322,
      "Ɣ": 323,
      "Ɩ": 324,
      "Ƙ": 325,
      "ƙ": 326,
      "ƚ": 327,
      "ƛ": 328,
      "Ɵ": 329,
      "Ơ": 330,
      "ơ": 331,
      "ƥ": 332,
      "Ʀ": 333,
      "Ƨ": 334,
      "Ʃ": 335,
      "Ư": 336,
      "ư": 337,
      "Ʋ": 338,
      "Ƴ": 339,
      "ƴ": 340,
      "Ƶ": 341,
      "Ʒ": 342,
      "Ƹ": 343,
      "ƽ": 344,
      "ƿ": 345,
      "ǀ": 346,
      "ǁ": 347,
      "ǃ": 348,
      "ǎ": 349,
      "ǐ": 350,
      "ǒ": 351,
      "Ǔ": 352,
      "ǔ": 353,
      "ǖ": 354,
      "ǘ": 355,
      "ǚ": 356,
      "ǜ": 357,
      "ǝ": 358,
      "ǟ": 359,
      "ǣ": 360,
      "ǥ": 361,
      "ǧ": 362,
      "ǩ": 363,
      "Ǫ": 364,
      "ǫ": 365,
      "ǰ": 366,
      "ǳ": 367,
      "ǵ": 368,
      "Ƿ": 369,
      "ǹ": 370,
      "Ǻ": 371,
      "ǿ": 372,
      "ȁ": 373,
      "ȅ": 374,
      "ȇ": 375,
      "Ș": 376,
      "ș": 377,
      "Ț": 378,
      "ț": 379,
      "ȝ": 380,
      "ȟ": 381,
      "Ȧ": 382,
      "ȧ": 383,
      "ȩ": 384,
      "ȳ": 385,
      "ȶ": 386,
      "Ȼ": 387,
      "Ⱦ": 388,
      "ȿ": 389,
      "ɀ": 390,
      "Ɂ": 391,
      "Ʌ": 392,
      "Ɇ": 393,
      "Ɋ": 394,
      "ɐ": 395,
      "ɑ": 396,
      "ɒ": 397,
      "ɓ": 398,
      "ɔ": 399,
      "ɕ": 400,
      "ɖ": 401,
      "ɗ": 402,
      "ɘ": 403,
      "ə": 404,
      "ɚ": 405,
      "ɛ": 406,
      "ɜ": 407,
      "ɝ": 408,
      "ɞ": 409,
      "ɟ": 410,
      "ɠ": 411,
      "ɡ": 412,
      "ɢ": 413,
      "ɣ": 414,
      "ɤ": 415,
      "ɥ": 416,
      "ɦ": 417,
      "ɧ": 418,
      "ɨ": 419,
      "ɩ": 420,
      "ɪ": 421,
      "ɫ": 422,
      "ɬ": 423,
      "ɭ": 424,
      "ɮ": 425,
      "ɯ": 426,
      "ɰ": 427,
      "ɱ": 428,
      "ɲ": 429,
      "ɳ": 430,
      "ɴ": 431,
      "ɵ": 432,
      "ɶ": 433,
      "ɹ": 434,
      "ɺ": 435,
      "ɻ": 436,
      "ɾ": 437,
      "ɿ": 438,
      "ʀ": 439,
      "ʁ": 440,
      "ʂ": 441,
      "ʃ": 442,
      "ʄ": 443,
      "ʅ": 444,
      "ʇ": 445,
      "ʈ": 446,
      "ʉ": 447,
      "ʊ": 448,
      "ʋ": 449,
      "ʌ": 450,
      "ʍ": 451,
      "ʎ": 452,
      "ʏ": 453,
      "ʐ": 454,
      "ʑ": 455,
      "ʒ": 456,
      "ʔ": 457,
      "ʕ": 458,
      "ʙ": 459,
      "ʛ": 460,
      "ʜ": 461,
      "ʝ": 462,
      "ʞ": 463,
      "ʟ": 464,
      "ʣ": 465,
      "ʤ": 466,
      "ʥ": 467,
      "ʦ": 468,
      "ʧ": 469,
      "ʨ": 470,
      "ʮ": 471,
      "ʰ": 472,
      "ʱ": 473,
      "ʲ": 474,
      "ʳ": 475,
      "ʴ": 476,
      "ʷ": 477,
      "ʸ": 478,
      "ʹ": 479,
      "ʺ": 480,
      "ʻ": 481,
      "ʼ": 482,
      "ʽ": 483,
      "ʾ": 484,
      "ʿ": 485,
      "ˀ": 486,
      "˂": 487,
      "˃": 488,
      "˄": 489,
      "˅": 490,
      "ˆ": 491,
      "ˇ": 492,
      "ˈ": 493,
      "ˉ": 494,
      "ˊ": 495,
      "ˋ": 496,
      "ˌ": 497,
      "ˎ": 498,
      "ˏ": 499,
      "ː": 500,
      "˓": 501,
      "˗": 502,
      "˘": 503,
      "˙": 504,
      "˚": 505,
      "˛": 506,
      "˜": 507,
      "˝": 508,
      "˞": 509,
      "ˠ": 510,
      "ˡ": 511,
      "ˢ": 512,
      "ˤ": 513,
      "˳": 514,
      "˹": 515,
      "˺": 516,
      "̀": 517,
      "́": 518,
      "̂": 519,
      "̃": 520,
      "̄": 521,
      "̅": 522,
      "̆": 523,
      "̇": 524,
      "̈": 525,
      "̉": 526,
      "̊": 527,
      "̋": 528,
      "̌": 529,
      "̍": 530,
      "̎": 531,
      "̏": 532,
      "̐": 533,
      "̑": 534,
      "̒": 535,
      "̓": 536,
      "̔": 537,
      "̕": 538,
      "̖": 539,
      "̗": 540,
      "̘": 541,
      "̙": 542,
      "̚": 543,
      "̛": 544,
      "̜": 545,
      "̝": 546,
      "̞": 547,
      "̟": 548,
      "̠": 549,
      "̡": 550,
      "̢": 551,
      "̣": 552,
      "̤": 553,
      "̥": 554,
      "̦": 555,
      "̧": 556,
      "̨": 557,
      "̩": 558,
      "̪": 559,
      "̫": 560,
      "̬": 561,
      "̭": 562,
      "̮": 563,
      "̯": 564,
      "̰": 565,
      "̱": 566,
      "̲": 567,
      "̳": 568,
      "̴": 569,
      "̵": 570,
      "̶": 571,
      "̷": 572,
      "̸": 573,
      "̹": 574,
      "̺": 575,
      "̻": 576,
      "̼": 577,
      "̽": 578,
      "̾": 579,
      "̿": 580,
      "͂": 581,
      "ͅ": 582,
      "͆": 583,
      "͇": 584,
      "͈": 585,
      "͉": 586,
      "͊": 587,
      "͋": 588,
      "͌": 589,
      "͍": 590,
      "͎": 591,
      "͏": 592,
      "͐": 593,
      "͑": 594,
      "͒": 595,
      "͓": 596,
      "͔": 597,
      "͕": 598,
      "͖": 599,
      "͗": 600,
      "͘": 601,
      "͙": 602,
      "͚": 603,
      "͛": 604,
      "͜": 605,
      "͝": 606,
      "͞": 607,
      "͟": 608,
      "͠": 609,
      "͡": 610,
      "͢": 611,
      "ͣ": 612,
      "ͤ": 613,
      "ͦ": 614,
      "ͧ": 615,
      "ͨ": 616,
      "ͩ": 617,
      "ͪ": 618,
      "ͫ": 619,
      "ͬ": 620,
      "ͭ": 621,
      "ͮ": 622,
      "ͯ": 623,
      "Ͳ": 624,
      "ͳ": 625,
      "ͻ": 626,
      "Ϳ": 627,
      "΄": 628,
      "Ά": 629,
      "Έ": 630,
      "Ή": 631,
      "Ί": 632,
      "Ό": 633,
      "Ύ": 634,
      "Ώ": 635,
      "ΐ": 636,
      "Α": 637,
      "Β": 638,
      "Γ": 639,
      "Δ": 640,
      "Ε": 641,
      "Ζ": 642,
      "Η": 643,
      "Θ": 644,
      "Ι": 645,
      "Κ": 646,
      "Λ": 647,
      "Μ": 648,
      "Ν": 649,
      "Ξ": 650,
      "Ο": 651,
      "Π": 652,
      "Ρ": 653,
      "Σ": 654,
      "Τ": 655,
      "Υ": 656,
      "Φ": 657,
      "Χ": 658,
      "Ψ": 659,
      "Ω": 660,
      "ά": 661,
      "έ": 662,
      "ή": 663,
      "ί": 664,
      "ΰ": 665,
      "α": 666,
      "β": 667,
      "γ": 668,
      "δ": 669,
      "ε": 670,
      "ζ": 671,
      "η": 672,
      "θ": 673,
      "ι": 674,
      "κ": 675,
      "λ": 676,
      "μ": 677,
      "ν": 678,
      "ξ": 679,
      "ο": 680,
      "π": 681,
      "ρ": 682,
      "ς": 683,
      "σ": 684,
      "τ": 685,
      "υ": 686,
      "φ": 687,
      "χ": 688,
      "ψ": 689,
      "ω": 690,
      "ϊ": 691,
      "ϋ": 692,
      "ό": 693,
      "ύ": 694,
      "ώ": 695,
      "ϑ": 696,
      "ϒ": 697,
      "ϕ": 698,
      "ϖ": 699,
      "Ϝ": 700,
      "ϭ": 701,
      "ϯ": 702,
      "ϰ": 703,
      "ϴ": 704,
      "ϵ": 705,
      "ϻ": 706,
      "Ё": 707,
      "Ђ": 708,
      "Ѓ": 709,
      "Є": 710,
      "Ѕ": 711,
      "І": 712,
      "Ї": 713,
      "Ј": 714,
      "Љ": 715,
      "Њ": 716,
      "Ћ": 717,
      "Ў": 718,
      "А": 719,
      "Б": 720,
      "В": 721,
      "Г": 722,
      "Д": 723,
      "Е": 724,
      "Ж": 725,
      "З": 726,
      "И": 727,
      "Й": 728,
      "К": 729,
      "Л": 730,
      "М": 731,
      "Н": 732,
      "О": 733,
      "П": 734,
      "Р": 735,
      "С": 736,
      "Т": 737,
      "У": 738,
      "Ф": 739,
      "Х": 740,
      "Ц": 741,
      "Ч": 742,
      "Ш": 743,
      "Щ": 744,
      "Ъ": 745,
      "Ы": 746,
      "Ь": 747,
      "Э": 748,
      "Ю": 749,
      "Я": 750,
      "а": 751,
      "б": 752,
      "в": 753,
      "г": 754,
      "д": 755,
      "е": 756,
      "ж": 757,
      "з": 758,
      "и": 759,
      "й": 760,
      "к": 761,
      "л": 762,
      "м": 763,
      "н": 764,
      "о": 765,
      "п": 766,
      "р": 767,
      "с": 768,
      "т": 769,
      "у": 770,
      "ф": 771,
      "х": 772,
      "ц": 773,
      "ч": 774,
      "ш": 775,
      "щ": 776,
      "ъ": 777,
      "ы": 778,
      "ь": 779,
      "э": 780,
      "ю": 781,
      "я": 782,
      "ё": 783,
      "ђ": 784,
      "ѓ": 785,
      "є": 786,
      "ѕ": 787,
      "і": 788,
      "ї": 789,
      "ј": 790,
      "љ": 791,
      "њ": 792,
      "ћ": 793,
      "ќ": 794,
      "ў": 795,
      "џ": 796,
      "ѡ": 797,
      "ѣ": 798,
      "ѥ": 799,
      "ѵ": 800,
      "ѷ": 801,
      "҄": 802,
      "҉": 803,
      "Ґ": 804,
      "ґ": 805,
      "Ғ": 806,
      "ғ": 807,
      "ҕ": 808,
      "җ": 809,
      "ҙ": 810,
      "Қ": 811,
      "қ": 812,
      "Ҡ": 813,
      "ҡ": 814,
      "ң": 815,
      "ҧ": 816,
      "ҩ": 817,
      "ү": 818,
      "ұ": 819,
      "ҳ": 820,
      "Ҵ": 821,
      "ҷ": 822,
      "һ": 823,
      "Ӏ": 824,
      "ӂ": 825,
      "ӏ": 826,
      "ӑ": 827,
      "ӓ": 828,
      "ӕ": 829,
      "Ә": 830,
      "ә": 831,
      "Ӝ": 832,
      "ӟ": 833,
      "ӣ": 834,
      "ӧ": 835,
      "Ө": 836,
      "ө": 837,
      "ӹ": 838,
      "Ԁ": 839,
      "ԁ": 840,
      "ԛ": 841,
      "ԝ": 842,
      "ԥ": 843,
      "Ա": 844,
      "Բ": 845,
      "Գ": 846,
      "Դ": 847,
      "Թ": 848,
      "Ժ": 849,
      "Լ": 850,
      "Կ": 851,
      "Հ": 852,
      "Ձ": 853,
      "Մ": 854,
      "Յ": 855,
      "Շ": 856,
      "Ջ": 857,
      "Ս": 858,
      "Վ": 859,
      "Ք": 860,
      "Ֆ": 861,
      "ա": 862,
      "բ": 863,
      "գ": 864,
      "դ": 865,
      "ե": 866,
      "զ": 867,
      "է": 868,
      "ը": 869,
      "թ": 870,
      "ի": 871,
      "լ": 872,
      "խ": 873,
      "ծ": 874,
      "կ": 875,
      "հ": 876,
      "ձ": 877,
      "ղ": 878,
      "ճ": 879,
      "մ": 880,
      "յ": 881,
      "ն": 882,
      "շ": 883,
      "ո": 884,
      "պ": 885,
      "ջ": 886,
      "ռ": 887,
      "ս": 888,
      "վ": 889,
      "տ": 890,
      "ր": 891,
      "ց": 892,
      "ւ": 893,
      "փ": 894,
      "ք": 895,
      "օ": 896,
      "ֆ": 897,
      "և": 898,
      "֍": 899,
      "֫": 900,
      "ְ": 901,
      "ֱ": 902,
      "ֲ": 903,
      "ִ": 904,
      "ֵ": 905,
      "ֶ": 906,
      "ַ": 907,
      "ָ": 908,
      "ֹ": 909,
      "ֺ": 910,
      "ֻ": 911,
      "ּ": 912,
      "־": 913,
      "ֿ": 914,
      "ׁ": 915,
      "ׂ": 916,
      "ׄ": 917,
      "א": 918,
      "ב": 919,
      "ג": 920,
      "ד": 921,
      "ה": 922,
      "ו": 923,
      "ז": 924,
      "ח": 925,
      "ט": 926,
      "י": 927,
      "ך": 928,
      "כ": 929,
      "ל": 930,
      "ם": 931,
      "מ": 932,
      "ן": 933,
      "נ": 934,
      "ס": 935,
      "ע": 936,
      "ף": 937,
      "פ": 938,
      "ץ": 939,
      "צ": 940,
      "ק": 941,
      "ר": 942,
      "ש": 943,
      "ת": 944,
      "װ": 945,
      "ײ": 946,
      "׳": 947,
      "״": 948,
      "،": 949,
      "ؐ": 950,
      "ؑ": 951,
      "ؒ": 952,
      "ؓ": 953,
      "ؔ": 954,
      "ؕ": 955,
      "؛": 956,
      "؟": 957,
      "ؠ": 958,
      "ء": 959,
      "آ": 960,
      "أ": 961,
      "ؤ": 962,
      "إ": 963,
      "ئ": 964,
      "ا": 965,
      "ب": 966,
      "ة": 967,
      "ت": 968,
      "ث": 969,
      "ج": 970,
      "ح": 971,
      "خ": 972,
      "د": 973,
      "ذ": 974,
      "ر": 975,
      "ز": 976,
      "س": 977,
      "ش": 978,
      "ص": 979,
      "ض": 980,
      "ط": 981,
      "ظ": 982,
      "ع": 983,
      "غ": 984,
      "ػ": 985,
      "ؼ": 986,
      "ؽ": 987,
      "ؾ": 988,
      "ـ": 989,
      "ف": 990,
      "ق": 991,
      "ك": 992,
      "ل": 993,
      "م": 994,
      "ن": 995,
      "ه": 996,
      "و": 997,
      "ى": 998,
      "ي": 999,
      "ً": 1000,
      "ٌ": 1001,
      "ٍ": 1002,
      "َ": 1003,
      "ُ": 1004,
      "ِ": 1005,
      "ّ": 1006,
      "ْ": 1007,
      "ٓ": 1008,
      "ٔ": 1009,
      "ٕ": 1010,
      "ٖ": 1011,
      "ٗ": 1012,
      "٘": 1013,
      "ٙ": 1014,
      "ٚ": 1015,
      "ٛ": 1016,
      "ٜ": 1017,
      "ٝ": 1018,
      "ٞ": 1019,
      "ٟ": 1020,
      "٠": 1021,
      "١": 1022,
      "٢": 1023,
      "٣": 1024,
      "٤": 1025,
      "٥": 1026,
      "٦": 1027,
      "٧": 1028,
      "٨": 1029,
      "٩": 1030,
      "٪": 1031,
      "٫": 1032,
      "٬": 1033,
      "٭": 1034,
      "ٰ": 1035,
      "ٱ": 1036,
      "ٲ": 1037,
      "ٴ": 1038,
      "ٸ": 1039,
      "ٹ": 1040,
      "ٺ": 1041,
      "ٻ": 1042,
      "ټ": 1043,
      "ٽ": 1044,
      "پ": 1045,
      "ٿ": 1046,
      "ڀ": 1047,
      "ځ": 1048,
      "ڃ": 1049,
      "ڄ": 1050,
      "څ": 1051,
      "چ": 1052,
      "ڇ": 1053,
      "ڈ": 1054,
      "ډ": 1055,
      "ڊ": 1056,
      "ڌ": 1057,
      "ڍ": 1058,
      "ڏ": 1059,
      "ڑ": 1060,
      "ړ": 1061,
      "ڕ": 1062,
      "ږ": 1063,
      "ژ": 1064,
      "ڙ": 1065,
      "ښ": 1066,
      "ڠ": 1067,
      "ڤ": 1068,
      "ڦ": 1069,
      "ک": 1070,
      "ڪ": 1071,
      "ګ": 1072,
      "ڬ": 1073,
      "گ": 1074,
      "ڱ": 1075,
      "ڳ": 1076,
      "ڵ": 1077,
      "ں": 1078,
      "ڻ": 1079,
      "ڼ": 1080,
      "ھ": 1081,
      "ۀ": 1082,
      "ہ": 1083,
      "ۂ": 1084,
      "ۃ": 1085,
      "ۄ": 1086,
      "ۆ": 1087,
      "ۇ": 1088,
      "ۊ": 1089,
      "ۋ": 1090,
      "ی": 1091,
      "ۍ": 1092,
      "ێ": 1093,
      "ې": 1094,
      "ے": 1095,
      "ۓ": 1096,
      "۔": 1097,
      "ە": 1098,
      "ۖ": 1099,
      "ۗ": 1100,
      "ۙ": 1101,
      "ۚ": 1102,
      "۞": 1103,
      "۟": 1104,
      "ۡ": 1105,
      "ۢ": 1106,
      "ۤ": 1107,
      "ۥ": 1108,
      "ۦ": 1109,
      "ۧ": 1110,
      "۪": 1111,
      "۫": 1112,
      "۬": 1113,
      "ۭ": 1114,
      "۰": 1115,
      "۱": 1116,
      "۲": 1117,
      "۳": 1118,
      "۴": 1119,
      "۵": 1120,
      "۶": 1121,
      "۷": 1122,
      "۸": 1123,
      "۹": 1124,
      "۽": 1125,
      "۾": 1126,
      "ܐ": 1127,
      "ܕ": 1128,
      "ܘ": 1129,
      "ܚ": 1130,
      "ܝ": 1131,
      "ܠ": 1132,
      "ܡ": 1133,
      "ܢ": 1134,
      "ܣ": 1135,
      "ܤ": 1136,
      "ܥ": 1137,
      "ܦ": 1138,
      "ܧ": 1139,
      "ܨ": 1140,
      "ܩ": 1141,
      "ܪ": 1142,
      "ܬ": 1143,
      "ܮ": 1144,
      "ܯ": 1145,
      "ܰ": 1146,
      "ܱ": 1147,
      "ܲ": 1148,
      "ܴ": 1149,
      "ܵ": 1150,
      "ܸ": 1151,
      "ܹ": 1152,
      "ܼ": 1153,
      "݀": 1154,
      "݁": 1155,
      "݂": 1156,
      "݉": 1157,
      "݊": 1158,
      "ݏ": 1159,
      "ݐ": 1160,
      "ݖ": 1161,
      "ހ": 1162,
      "ނ": 1163,
      "ރ": 1164,
      "ބ": 1165,
      "ކ": 1166,
      "އ": 1167,
      "ވ": 1168,
      "މ": 1169,
      "ފ": 1170,
      "ދ": 1171,
      "ސ": 1172,
      "ޑ": 1173,
      "ޔ": 1174,
      "ޕ": 1175,
      "ޖ": 1176,
      "ޝ": 1177,
      "ަ": 1178,
      "ާ": 1179,
      "ި": 1180,
      "ީ": 1181,
      "ު": 1182,
      "ެ": 1183,
      "ް": 1184,
      "ߋ": 1185,
      "ߏ": 1186,
      "ߒ": 1187,
      "ߝ": 1188,
      "ߞ": 1189,
      "ߠ": 1190,
      "ߤ": 1191,
      "߮": 1192,
      "ࠉ": 1193,
      "ࡧ": 1194,
      "ࢬ": 1195,
      "ࣞ": 1196,
      "ࣤ": 1197,
      "࣪": 1198,
      "࣭": 1199,
      "ँ": 1200,
      "ं": 1201,
      "ः": 1202,
      "ऄ": 1203,
      "अ": 1204,
      "आ": 1205,
      "इ": 1206,
      "ई": 1207,
      "उ": 1208,
      "ऊ": 1209,
      "ऋ": 1210,
      "ऌ": 1211,
      "ऍ": 1212,
      "ऎ": 1213,
      "ए": 1214,
      "ऐ": 1215,
      "ऑ": 1216,
      "ऒ": 1217,
      "ओ": 1218,
      "औ": 1219,
      "क": 1220,
      "ख": 1221,
      "ग": 1222,
      "घ": 1223,
      "ङ": 1224,
      "च": 1225,
      "छ": 1226,
      "ज": 1227,
      "झ": 1228,
      "ञ": 1229,
      "ट": 1230,
      "ठ": 1231,
      "ड": 1232,
      "ढ": 1233,
      "ण": 1234,
      "त": 1235,
      "थ": 1236,
      "द": 1237,
      "ध": 1238,
      "न": 1239,
      "ऩ": 1240,
      "प": 1241,
      "फ": 1242,
      "ब": 1243,
      "भ": 1244,
      "म": 1245,
      "य": 1246,
      "र": 1247,
      "ऱ": 1248,
      "ल": 1249,
      "ळ": 1250,
      "ऴ": 1251,
      "व": 1252,
      "श": 1253,
      "ष": 1254,
      "स": 1255,
      "ह": 1256,
      "ऺ": 1257,
      "ऻ": 1258,
      "़": 1259,
      "ऽ": 1260,
      "ा": 1261,
      "ि": 1262,
      "ी": 1263,
      "ु": 1264,
      "ू": 1265,
      "ृ": 1266,
      "ॄ": 1267,
      "ॅ": 1268,
      "े": 1269,
      "ै": 1270,
      "ॉ": 1271,
      "ॊ": 1272,
      "ो": 1273,
      "ौ": 1274,
      "्": 1275,
      "ॐ": 1276,
      "॑": 1277,
      "॒": 1278,
      "॔": 1279,
      "ॠ": 1280,
      "।": 1281,
      "॥": 1282,
      "०": 1283,
      "१": 1284,
      "२": 1285,
      "३": 1286,
      "४": 1287,
      "५": 1288,
      "६": 1289,
      "७": 1290,
      "८": 1291,
      "९": 1292,
      "॰": 1293,
      "ॲ": 1294,
      "ঁ": 1295,
      "ং": 1296,
      "ঃ": 1297,
      "অ": 1298,
      "আ": 1299,
      "ই": 1300,
      "ঈ": 1301,
      "উ": 1302,
      "ঊ": 1303,
      "ঋ": 1304,
      "এ": 1305,
      "ঐ": 1306,
      "ও": 1307,
      "ঔ": 1308,
      "ক": 1309,
      "খ": 1310,
      "গ": 1311,
      "ঘ": 1312,
      "ঙ": 1313,
      "চ": 1314,
      "ছ": 1315,
      "জ": 1316,
      "ঝ": 1317,
      "ঞ": 1318,
      "ট": 1319,
      "ঠ": 1320,
      "ড": 1321,
      "ঢ": 1322,
      "ণ": 1323,
      "ত": 1324,
      "থ": 1325,
      "দ": 1326,
      "ধ": 1327,
      "ন": 1328,
      "প": 1329,
      "ফ": 1330,
      "ব": 1331,
      "ভ": 1332,
      "ম": 1333,
      "য": 1334,
      "র": 1335,
      "ল": 1336,
      "শ": 1337,
      "ষ": 1338,
      "স": 1339,
      "হ": 1340,
      "়": 1341,
      "া": 1342,
      "ি": 1343,
      "ী": 1344,
      "ু": 1345,
      "ূ": 1346,
      "ৃ": 1347,
      "ে": 1348,
      "ৈ": 1349,
      "ো": 1350,
      "ৌ": 1351,
      "্": 1352,
      "ৎ": 1353,
      "ৗ": 1354,
      "০": 1355,
      "১": 1356,
      "২": 1357,
      "৩": 1358,
      "৪": 1359,
      "৫": 1360,
      "৬": 1361,
      "৭": 1362,
      "৮": 1363,
      "৯": 1364,
      "ৰ": 1365,
      "ৱ": 1366,
      "৷": 1367,
      "৸": 1368,
      "৺": 1369,
      "ਂ": 1370,
      "ਃ": 1371,
      "ਅ": 1372,
      "ਆ": 1373,
      "ਇ": 1374,
      "ਈ": 1375,
      "ਉ": 1376,
      "ਊ": 1377,
      "ਏ": 1378,
      "ਐ": 1379,
      "ਓ": 1380,
      "ਔ": 1381,
      "ਕ": 1382,
      "ਖ": 1383,
      "ਗ": 1384,
      "ਘ": 1385,
      "ਚ": 1386,
      "ਛ": 1387,
      "ਜ": 1388,
      "ਝ": 1389,
      "ਟ": 1390,
      "ਠ": 1391,
      "ਡ": 1392,
      "ਢ": 1393,
      "ਣ": 1394,
      "ਤ": 1395,
      "ਥ": 1396,
      "ਦ": 1397,
      "ਧ": 1398,
      "ਨ": 1399,
      "ਪ": 1400,
      "ਫ": 1401,
      "ਬ": 1402,
      "ਭ": 1403,
      "ਮ": 1404,
      "ਯ": 1405,
      "ਰ": 1406,
      "ਲ": 1407,
      "ਵ": 1408,
      "ਸ": 1409,
      "ਹ": 1410,
      "਼": 1411,
      "ਾ": 1412,
      "ਿ": 1413,
      "ੀ": 1414,
      "ੁ": 1415,
      "ੂ": 1416,
      "ੇ": 1417,
      "ੈ": 1418,
      "ੋ": 1419,
      "ੌ": 1420,
      "੍": 1421,
      "ੜ": 1422,
      "੦": 1423,
      "੧": 1424,
      "੨": 1425,
      "੩": 1426,
      "੪": 1427,
      "੫": 1428,
      "੬": 1429,
      "੭": 1430,
      "੮": 1431,
      "੯": 1432,
      "ੰ": 1433,
      "ੱ": 1434,
      "ੲ": 1435,
      "ੳ": 1436,
      "ઁ": 1437,
      "ં": 1438,
      "ઃ": 1439,
      "અ": 1440,
      "આ": 1441,
      "ઇ": 1442,
      "ઈ": 1443,
      "ઉ": 1444,
      "ઊ": 1445,
      "ઋ": 1446,
      "ઌ": 1447,
      "ઍ": 1448,
      "એ": 1449,
      "ઐ": 1450,
      "ઑ": 1451,
      "ઓ": 1452,
      "ઔ": 1453,
      "ક": 1454,
      "ખ": 1455,
      "ગ": 1456,
      "ઘ": 1457,
      "ચ": 1458,
      "છ": 1459,
      "જ": 1460,
      "ઝ": 1461,
      "ઞ": 1462,
      "ટ": 1463,
      "ઠ": 1464,
      "ડ": 1465,
      "ઢ": 1466,
      "ણ": 1467,
      "ત": 1468,
      "થ": 1469,
      "દ": 1470,
      "ધ": 1471,
      "ન": 1472,
      "પ": 1473,
      "ફ": 1474,
      "બ": 1475,
      "ભ": 1476,
      "મ": 1477,
      "ય": 1478,
      "ર": 1479,
      "લ": 1480,
      "ળ": 1481,
      "વ": 1482,
      "શ": 1483,
      "ષ": 1484,
      "સ": 1485,
      "હ": 1486,
      "ા": 1487,
      "િ": 1488,
      "ી": 1489,
      "ુ": 1490,
      "ૂ": 1491,
      "ૃ": 1492,
      "ૅ": 1493,
      "ે": 1494,
      "ૈ": 1495,
      "ૉ": 1496,
      "ો": 1497,
      "ૌ": 1498,
      "્": 1499,
      "ૐ": 1500,
      "ૠ": 1501,
      "૦": 1502,
      "૧": 1503,
      "૨": 1504,
      "૩": 1505,
      "૪": 1506,
      "૫": 1507,
      "૬": 1508,
      "૭": 1509,
      "૮": 1510,
      "૯": 1511,
      "૱": 1512,
      "ଁ": 1513,
      "ଂ": 1514,
      "ଃ": 1515,
      "ଅ": 1516,
      "ଆ": 1517,
      "ଇ": 1518,
      "ଈ": 1519,
      "ଉ": 1520,
      "ଊ": 1521,
      "ଋ": 1522,
      "ଏ": 1523,
      "ଐ": 1524,
      "ଓ": 1525,
      "ଔ": 1526,
      "କ": 1527,
      "ଖ": 1528,
      "ଗ": 1529,
      "ଘ": 1530,
      "ଙ": 1531,
      "ଚ": 1532,
      "ଛ": 1533,
      "ଜ": 1534,
      "ଝ": 1535,
      "ଞ": 1536,
      "ଟ": 1537,
      "ଠ": 1538,
      "ଡ": 1539,
      "ଢ": 1540,
      "ଣ": 1541,
      "ତ": 1542,
      "ଥ": 1543,
      "ଦ": 1544,
      "ଧ": 1545,
      "ନ": 1546,
      "ପ": 1547,
      "ଫ": 1548,
      "ବ": 1549,
      "ଭ": 1550,
      "ମ": 1551,
      "ଯ": 1552,
      "ର": 1553,
      "ଲ": 1554,
      "ଳ": 1555,
      "ଵ": 1556,
      "ଶ": 1557,
      "ଷ": 1558,
      "ସ": 1559,
      "ହ": 1560,
      "଼": 1561,
      "ା": 1562,
      "ି": 1563,
      "ୀ": 1564,
      "ୁ": 1565,
      "ୂ": 1566,
      "ୃ": 1567,
      "େ": 1568,
      "ୈ": 1569,
      "ୋ": 1570,
      "ୌ": 1571,
      "୍": 1572,
      "ୟ": 1573,
      "ୣ": 1574,
      "୦": 1575,
      "୧": 1576,
      "୨": 1577,
      "୩": 1578,
      "୪": 1579,
      "୫": 1580,
      "୬": 1581,
      "୭": 1582,
      "୮": 1583,
      "୯": 1584,
      "୰": 1585,
      "ୱ": 1586,
      "୲": 1587,
      "ஃ": 1588,
      "அ": 1589,
      "ஆ": 1590,
      "இ": 1591,
      "ஈ": 1592,
      "உ": 1593,
      "ஊ": 1594,
      "எ": 1595,
      "ஏ": 1596,
      "ஐ": 1597,
      "ஒ": 1598,
      "ஓ": 1599,
      "ஔ": 1600,
      "க": 1601,
      "ங": 1602,
      "ச": 1603,
      "ஜ": 1604,
      "ஞ": 1605,
      "ட": 1606,
      "ண": 1607,
      "த": 1608,
      "ந": 1609,
      "ன": 1610,
      "ப": 1611,
      "ம": 1612,
      "ய": 1613,
      "ர": 1614,
      "ற": 1615,
      "ல": 1616,
      "ள": 1617,
      "ழ": 1618,
      "வ": 1619,
      "ஷ": 1620,
      "ஸ": 1621,
      "ஹ": 1622,
      "ா": 1623,
      "ி": 1624,
      "ீ": 1625,
      "ு": 1626,
      "ூ": 1627,
      "ெ": 1628,
      "ே": 1629,
      "ை": 1630,
      "ொ": 1631,
      "ோ": 1632,
      "ௌ": 1633,
      "்": 1634,
      "ௗ": 1635,
      "௦": 1636,
      "௧": 1637,
      "௫": 1638,
      "ఁ": 1639,
      "ం": 1640,
      "ః": 1641,
      "అ": 1642,
      "ఆ": 1643,
      "ఇ": 1644,
      "ఈ": 1645,
      "ఉ": 1646,
      "ఊ": 1647,
      "ఋ": 1648,
      "ఎ": 1649,
      "ఏ": 1650,
      "ఐ": 1651,
      "ఒ": 1652,
      "ఓ": 1653,
      "ఔ": 1654,
      "క": 1655,
      "ఖ": 1656,
      "గ": 1657,
      "ఘ": 1658,
      "ఙ": 1659,
      "చ": 1660,
      "ఛ": 1661,
      "జ": 1662,
      "ఝ": 1663,
      "ఞ": 1664,
      "ట": 1665,
      "ఠ": 1666,
      "డ": 1667,
      "ఢ": 1668,
      "ణ": 1669,
      "త": 1670,
      "థ": 1671,
      "ద": 1672,
      "ధ": 1673,
      "న": 1674,
      "ప": 1675,
      "ఫ": 1676,
      "బ": 1677,
      "భ": 1678,
      "మ": 1679,
      "య": 1680,
      "ర": 1681,
      "ల": 1682,
      "ళ": 1683,
      "వ": 1684,
      "శ": 1685,
      "ష": 1686,
      "స": 1687,
      "హ": 1688,
      "ా": 1689,
      "ి": 1690,
      "ీ": 1691,
      "ు": 1692,
      "ూ": 1693,
      "ృ": 1694,
      "ె": 1695,
      "ే": 1696,
      "ై": 1697,
      "ొ": 1698,
      "ో": 1699,
      "ౌ": 1700,
      "్": 1701,
      "౦": 1702,
      "౧": 1703,
      "ಂ": 1704,
      "ಃ": 1705,
      "ಅ": 1706,
      "ಆ": 1707,
      "ಇ": 1708,
      "ಈ": 1709,
      "ಉ": 1710,
      "ಊ": 1711,
      "ಋ": 1712,
      "ಎ": 1713,
      "ಏ": 1714,
      "ಐ": 1715,
      "ಒ": 1716,
      "ಓ": 1717,
      "ಔ": 1718,
      "ಕ": 1719,
      "ಖ": 1720,
      "ಗ": 1721,
      "ಘ": 1722,
      "ಚ": 1723,
      "ಛ": 1724,
      "ಜ": 1725,
      "ಝ": 1726,
      "ಞ": 1727,
      "ಟ": 1728,
      "ಠ": 1729,
      "ಡ": 1730,
      "ಢ": 1731,
      "ಣ": 1732,
      "ತ": 1733,
      "ಥ": 1734,
      "ದ": 1735,
      "ಧ": 1736,
      "ನ": 1737,
      "ಪ": 1738,
      "ಫ": 1739,
      "ಬ": 1740,
      "ಭ": 1741,
      "ಮ": 1742,
      "ಯ": 1743,
      "ರ": 1744,
      "ಱ": 1745,
      "ಲ": 1746,
      "ಳ": 1747,
      "ವ": 1748,
      "ಶ": 1749,
      "ಷ": 1750,
      "ಸ": 1751,
      "ಹ": 1752,
      "ಾ": 1753,
      "ಿ": 1754,
      "ೀ": 1755,
      "ು": 1756,
      "ೂ": 1757,
      "ೃ": 1758,
      "ೆ": 1759,
      "ೇ": 1760,
      "ೈ": 1761,
      "ೊ": 1762,
      "ೋ": 1763,
      "ೌ": 1764,
      "್": 1765,
      "ೞ": 1766,
      "ೢ": 1767,
      "೦": 1768,
      "೧": 1769,
      "೨": 1770,
      "೩": 1771,
      "೪": 1772,
      "೫": 1773,
      "೬": 1774,
      "೭": 1775,
      "೮": 1776,
      "೯": 1777,
      "ം": 1778,
      "ഃ": 1779,
      "അ": 1780,
      "ആ": 1781,
      "ഇ": 1782,
      "ഈ": 1783,
      "ഉ": 1784,
      "ഊ": 1785,
      "ഋ": 1786,
      "എ": 1787,
      "ഏ": 1788,
      "ഐ": 1789,
      "ഒ": 1790,
      "ഓ": 1791,
      "ഔ": 1792,
      "ക": 1793,
      "ഖ": 1794,
      "ഗ": 1795,
      "ഘ": 1796,
      "ങ": 1797,
      "ച": 1798,
      "ഛ": 1799,
      "ജ": 1800,
      "ഝ": 1801,
      "ഞ": 1802,
      "ട": 1803,
      "ഠ": 1804,
      "ഡ": 1805,
      "ഢ": 1806,
      "ണ": 1807,
      "ത": 1808,
      "ഥ": 1809,
      "ദ": 1810,
      "ധ": 1811,
      "ന": 1812,
      "പ": 1813,
      "ഫ": 1814,
      "ബ": 1815,
      "ഭ": 1816,
      "മ": 1817,
      "യ": 1818,
      "ര": 1819,
      "റ": 1820,
      "ല": 1821,
      "ള": 1822,
      "ഴ": 1823,
      "വ": 1824,
      "ശ": 1825,
      "ഷ": 1826,
      "സ": 1827,
      "ഹ": 1828,
      "ാ": 1829,
      "ി": 1830,
      "ീ": 1831,
      "ു": 1832,
      "ൂ": 1833,
      "ൃ": 1834,
      "െ": 1835,
      "േ": 1836,
      "ൈ": 1837,
      "ൊ": 1838,
      "ോ": 1839,
      "ൌ": 1840,
      "്": 1841,
      "ൗ": 1842,
      "൫": 1843,
      "൬": 1844,
      "൯": 1845,
      "൰": 1846,
      "ൺ": 1847,
      "ൻ": 1848,
      "ർ": 1849,
      "ൽ": 1850,
      "ൾ": 1851,
      "ൿ": 1852,
      "ං": 1853,
      "ඃ": 1854,
      "අ": 1855,
      "ආ": 1856,
      "ඇ": 1857,
      "ඉ": 1858,
      "උ": 1859,
      "ඐ": 1860,
      "එ": 1861,
      "ඔ": 1862,
      "ඕ": 1863,
      "ක": 1864,
      "ග": 1865,
      "ඟ": 1866,
      "ච": 1867,
      "ඡ": 1868,
      "ජ": 1869,
      "ට": 1870,
      "ඩ": 1871,
      "ණ": 1872,
      "ත": 1873,
      "ථ": 1874,
      "ද": 1875,
      "ධ": 1876,
      "න": 1877,
      "ඳ": 1878,
      "ප": 1879,
      "ඵ": 1880,
      "බ": 1881,
      "භ": 1882,
      "ම": 1883,
      "ඹ": 1884,
      "ය": 1885,
      "ර": 1886,
      "ල": 1887,
      "ව": 1888,
      "ශ": 1889,
      "ෂ": 1890,
      "ස": 1891,
      "හ": 1892,
      "ළ": 1893,
      "ෆ": 1894,
      "්": 1895,
      "ා": 1896,
      "ැ": 1897,
      "ෑ": 1898,
      "ි": 1899,
      "ී": 1900,
      "ු": 1901,
      "ූ": 1902,
      "ෘ": 1903,
      "ෙ": 1904,
      "ේ": 1905,
      "ො": 1906,
      "ෝ": 1907,
      "ෞ": 1908,
      "ก": 1909,
      "ข": 1910,
      "ค": 1911,
      "ง": 1912,
      "จ": 1913,
      "ช": 1914,
      "ซ": 1915,
      "ญ": 1916,
      "ฐ": 1917,
      "ฒ": 1918,
      "ณ": 1919,
      "ด": 1920,
      "ต": 1921,
      "ถ": 1922,
      "ท": 1923,
      "ธ": 1924,
      "น": 1925,
      "บ": 1926,
      "ป": 1927,
      "ผ": 1928,
      "ฝ": 1929,
      "พ": 1930,
      "ฟ": 1931,
      "ภ": 1932,
      "ม": 1933,
      "ย": 1934,
      "ร": 1935,
      "ฤ": 1936,
      "ล": 1937,
      "ว": 1938,
      "ศ": 1939,
      "ษ": 1940,
      "ส": 1941,
      "ห": 1942,
      "อ": 1943,
      "ฯ": 1944,
      "ะ": 1945,
      "ั": 1946,
      "า": 1947,
      "ำ": 1948,
      "ิ": 1949,
      "ี": 1950,
      "ื": 1951,
      "ุ": 1952,
      "ู": 1953,
      "ฺ": 1954,
      "เ": 1955,
      "แ": 1956,
      "โ": 1957,
      "ใ": 1958,
      "ไ": 1959,
      "ๅ": 1960,
      "ๆ": 1961,
      "็": 1962,
      "่": 1963,
      "้": 1964,
      "๊": 1965,
      "์": 1966,
      "๑": 1967,
      "ກ": 1968,
      "ຂ": 1969,
      "ຄ": 1970,
      "ງ": 1971,
      "ຈ": 1972,
      "ຊ": 1973,
      "ຍ": 1974,
      "ດ": 1975,
      "ທ": 1976,
      "ນ": 1977,
      "ບ": 1978,
      "ປ": 1979,
      "ຜ": 1980,
      "ພ": 1981,
      "ມ": 1982,
      "ຣ": 1983,
      "ລ": 1984,
      "ວ": 1985,
      "ສ": 1986,
      "ຫ": 1987,
      "ອ": 1988,
      "ະ": 1989,
      "ັ": 1990,
      "າ": 1991,
      "ຳ": 1992,
      "ິ": 1993,
      "ີ": 1994,
      "ຸ": 1995,
      "ູ": 1996,
      "ົ": 1997,
      "ຼ": 1998,
      "ຽ": 1999,
      "ເ": 2000,
      "ແ": 2001,
      "ໃ": 2002,
      "້": 2003,
      "໌": 2004,
      "ໍ": 2005,
      "໖": 2006,
      "ໝ": 2007,
      "་": 2008,
      "༌": 2009,
      "།": 2010,
      "༒": 2011,
      "ཀ": 2012,
      "ཁ": 2013,
      "ག": 2014,
      "ང": 2015,
      "ཅ": 2016,
      "ཆ": 2017,
      "ཇ": 2018,
      "ཉ": 2019,
      "ཎ": 2020,
      "ཏ": 2021,
      "ད": 2022,
      "ན": 2023,
      "པ": 2024,
      "བ": 2025,
      "མ": 2026,
      "ཙ": 2027,
      "ཚ": 2028,
      "ཛ": 2029,
      "ཝ": 2030,
      "ཞ": 2031,
      "ཟ": 2032,
      "འ": 2033,
      "ཡ": 2034,
      "ར": 2035,
      "ལ": 2036,
      "ས": 2037,
      "ཧ": 2038,
      "ཨ": 2039,
      "ཱ": 2040,
      "ི": 2041,
      "ུ": 2042,
      "ེ": 2043,
      "ོ": 2044,
      "ཾ": 2045,
      "ཿ": 2046,
      "ྃ": 2047,
      "ྐ": 2048,
      "ྒ": 2049,
      "ྡ": 2050,
      "ྤ": 2051,
      "ྦ": 2052,
      "ྨ": 2053,
      "ྩ": 2054,
      "ྫ": 2055,
      "ྱ": 2056,
      "ྲ": 2057,
      "ླ": 2058,
      "ྷ": 2059,
      "က": 2060,
      "ခ": 2061,
      "ဂ": 2062,
      "င": 2063,
      "စ": 2064,
      "ဆ": 2065,
      "ဇ": 2066,
      "ဉ": 2067,
      "ည": 2068,
      "ဍ": 2069,
      "ဏ": 2070,
      "တ": 2071,
      "ထ": 2072,
      "ဒ": 2073,
      "ဓ": 2074,
      "န": 2075,
      "ပ": 2076,
      "ဖ": 2077,
      "ဗ": 2078,
      "ဘ": 2079,
      "မ": 2080,
      "ယ": 2081,
      "ရ": 2082,
      "လ": 2083,
      "ဝ": 2084,
      "သ": 2085,
      "ဟ": 2086,
      "အ": 2087,
      "ဢ": 2088,
      "ဤ": 2089,
      "ါ": 2090,
      "ာ": 2091,
      "ိ": 2092,
      "ီ": 2093,
      "ု": 2094,
      "ူ": 2095,
      "ေ": 2096,
      "ဲ": 2097,
      "ဳ": 2098,
      "ဵ": 2099,
      "ံ": 2100,
      "့": 2101,
      "း": 2102,
      "္": 2103,
      "်": 2104,
      "ျ": 2105,
      "ြ": 2106,
      "ွ": 2107,
      "ှ": 2108,
      "၊": 2109,
      "။": 2110,
      "၍": 2111,
      "၏": 2112,
      "ၚ": 2113,
      "ၜ": 2114,
      "ၟ": 2115,
      "ၠ": 2116,
      "ၢ": 2117,
      "ၤ": 2118,
      "ၯ": 2119,
      "ၵ": 2120,
      "ၶ": 2121,
      "ၸ": 2122,
      "ၺ": 2123,
      "ၻ": 2124,
      "ၼ": 2125,
      "ၽ": 2126,
      "ၾ": 2127,
      "ႁ": 2128,
      "ႂ": 2129,
      "ႃ": 2130,
      "ႄ": 2131,
      "ႅ": 2132,
      "ႆ": 2133,
      "ႇ": 2134,
      "ႈ": 2135,
      "ႉ": 2136,
      "ႊ": 2137,
      "ႋ": 2138,
      "ႏ": 2139,
      "ა": 2140,
      "ბ": 2141,
      "გ": 2142,
      "დ": 2143,
      "ე": 2144,
      "ვ": 2145,
      "ზ": 2146,
      "თ": 2147,
      "ი": 2148,
      "კ": 2149,
      "ლ": 2150,
      "მ": 2151,
      "ნ": 2152,
      "ო": 2153,
      "პ": 2154,
      "ჟ": 2155,
      "რ": 2156,
      "ს": 2157,
      "ტ": 2158,
      "უ": 2159,
      "ფ": 2160,
      "ქ": 2161,
      "ღ": 2162,
      "ყ": 2163,
      "შ": 2164,
      "ჩ": 2165,
      "ც": 2166,
      "ძ": 2167,
      "წ": 2168,
      "ჭ": 2169,
      "ხ": 2170,
      "ჯ": 2171,
      "ᅟ": 2172,
      "ᅠ": 2173,
      "ᅳ": 2174,
      "ᇱ": 2175,
      "ሀ": 2176,
      "ሁ": 2177,
      "ሂ": 2178,
      "ሃ": 2179,
      "ሄ": 2180,
      "ህ": 2181,
      "ሆ": 2182,
      "ለ": 2183,
      "ሉ": 2184,
      "ሊ": 2185,
      "ላ": 2186,
      "ሌ": 2187,
      "ል": 2188,
      "ሎ": 2189,
      "ሏ": 2190,
      "ሐ": 2191,
      "ሑ": 2192,
      "ሒ": 2193,
      "ሓ": 2194,
      "ሔ": 2195,
      "ሕ": 2196,
      "መ": 2197,
      "ሙ": 2198,
      "ሚ": 2199,
      "ማ": 2200,
      "ሜ": 2201,
      "ም": 2202,
      "ሞ": 2203,
      "ሟ": 2204,
      "ሠ": 2205,
      "ሣ": 2206,
      "ሥ": 2207,
      "ሦ": 2208,
      "ረ": 2209,
      "ሩ": 2210,
      "ሪ": 2211,
      "ራ": 2212,
      "ሬ": 2213,
      "ር": 2214,
      "ሮ": 2215,
      "ሯ": 2216,
      "ሰ": 2217,
      "ሱ": 2218,
      "ሲ": 2219,
      "ሳ": 2220,
      "ሴ": 2221,
      "ስ": 2222,
      "ሶ": 2223,
      "ሸ": 2224,
      "ሹ": 2225,
      "ሺ": 2226,
      "ሻ": 2227,
      "ሽ": 2228,
      "ሾ": 2229,
      "ቀ": 2230,
      "ቁ": 2231,
      "ቂ": 2232,
      "ቃ": 2233,
      "ቄ": 2234,
      "ቅ": 2235,
      "ቆ": 2236,
      "ቋ": 2237,
      "ቐ": 2238,
      "ቓ": 2239,
      "ቕ": 2240,
      "በ": 2241,
      "ቡ": 2242,
      "ቢ": 2243,
      "ባ": 2244,
      "ቤ": 2245,
      "ብ": 2246,
      "ቦ": 2247,
      "ቨ": 2248,
      "ቪ": 2249,
      "ተ": 2250,
      "ቱ": 2251,
      "ቲ": 2252,
      "ታ": 2253,
      "ቴ": 2254,
      "ት": 2255,
      "ቶ": 2256,
      "ቷ": 2257,
      "ቸ": 2258,
      "ቹ": 2259,
      "ቺ": 2260,
      "ቻ": 2261,
      "ች": 2262,
      "ኀ": 2263,
      "ኃ": 2264,
      "ኋ": 2265,
      "ነ": 2266,
      "ኑ": 2267,
      "ኒ": 2268,
      "ና": 2269,
      "ኔ": 2270,
      "ን": 2271,
      "ኖ": 2272,
      "ኘ": 2273,
      "ኙ": 2274,
      "ኛ": 2275,
      "ኝ": 2276,
      "ኞ": 2277,
      "አ": 2278,
      "ኡ": 2279,
      "ኢ": 2280,
      "ኣ": 2281,
      "ኤ": 2282,
      "እ": 2283,
      "ኦ": 2284,
      "ከ": 2285,
      "ኩ": 2286,
      "ኪ": 2287,
      "ካ": 2288,
      "ኬ": 2289,
      "ክ": 2290,
      "ኮ": 2291,
      "ኳ": 2292,
      "ኸ": 2293,
      "ኹ": 2294,
      "ኻ": 2295,
      "ኼ": 2296,
      "ኽ": 2297,
      "ወ": 2298,
      "ዉ": 2299,
      "ዊ": 2300,
      "ዋ": 2301,
      "ዌ": 2302,
      "ው": 2303,
      "ዎ": 2304,
      "ዐ": 2305,
      "ዑ": 2306,
      "ዓ": 2307,
      "ዕ": 2308,
      "ዖ": 2309,
      "ዘ": 2310,
      "ዙ": 2311,
      "ዚ": 2312,
      "ዛ": 2313,
      "ዜ": 2314,
      "ዝ": 2315,
      "ዞ": 2316,
      "ዢ": 2317,
      "ዣ": 2318,
      "ዥ": 2319,
      "ዧ": 2320,
      "የ": 2321,
      "ዩ": 2322,
      "ያ": 2323,
      "ዬ": 2324,
      "ይ": 2325,
      "ዮ": 2326,
      "ደ": 2327,
      "ዱ": 2328,
      "ዲ": 2329,
      "ዳ": 2330,
      "ዴ": 2331,
      "ድ": 2332,
      "ዶ": 2333,
      "ዷ": 2334,
      "ጀ": 2335,
      "ጁ": 2336,
      "ጂ": 2337,
      "ጃ": 2338,
      "ጅ": 2339,
      "ጆ": 2340,
      "ጇ": 2341,
      "ገ": 2342,
      "ጉ": 2343,
      "ጊ": 2344,
      "ጋ": 2345,
      "ጌ": 2346,
      "ግ": 2347,
      "ጎ": 2348,
      "ጐ": 2349,
      "ጒ": 2350,
      "ጓ": 2351,
      "ጠ": 2352,
      "ጡ": 2353,
      "ጣ": 2354,
      "ጤ": 2355,
      "ጥ": 2356,
      "ጦ": 2357,
      "ጨ": 2358,
      "ጩ": 2359,
      "ጪ": 2360,
      "ጫ": 2361,
      "ጭ": 2362,
      "ጮ": 2363,
      "ጵ": 2364,
      "ጸ": 2365,
      "ጹ": 2366,
      "ጺ": 2367,
      "ጻ": 2368,
      "ጽ": 2369,
      "ጾ": 2370,
      "ፀ": 2371,
      "ፁ": 2372,
      "ፃ": 2373,
      "ፅ": 2374,
      "ፆ": 2375,
      "ፈ": 2376,
      "ፉ": 2377,
      "ፊ": 2378,
      "ፋ": 2379,
      "ፌ": 2380,
      "ፍ": 2381,
      "ፎ": 2382,
      "ፐ": 2383,
      "ፒ": 2384,
      "ፓ": 2385,
      "ፔ": 2386,
      "ፕ": 2387,
      "ፖ": 2388,
      "፡": 2389,
      "።": 2390,
      "፣": 2391,
      "፤": 2392,
      "፧": 2393,
      "፪": 2394,
      "፳": 2395,
      "Ꭰ": 2396,
      "Ꭲ": 2397,
      "Ꭷ": 2398,
      "Ꭹ": 2399,
      "Ꭺ": 2400,
      "Ꭾ": 2401,
      "Ꭿ": 2402,
      "Ꮃ": 2403,
      "Ꮒ": 2404,
      "Ꮓ": 2405,
      "Ꮗ": 2406,
      "Ꮚ": 2407,
      "Ꮝ": 2408,
      "Ꮞ": 2409,
      "Ꮣ": 2410,
      "Ꮧ": 2411,
      "Ꮲ": 2412,
      "Ꮳ": 2413,
      "Ꮺ": 2414,
      "Ꮻ": 2415,
      "Ꮼ": 2416,
      "Ꮿ": 2417,
      "ᐁ": 2418,
      "ᐂ": 2419,
      "ᐃ": 2420,
      "ᐄ": 2421,
      "ᐅ": 2422,
      "ᐆ": 2423,
      "ᐊ": 2424,
      "ᐋ": 2425,
      "ᐌ": 2426,
      "ᐍ": 2427,
      "ᐎ": 2428,
      "ᐏ": 2429,
      "ᐐ": 2430,
      "ᐑ": 2431,
      "ᐓ": 2432,
      "ᐗ": 2433,
      "ᐘ": 2434,
      "ᐙ": 2435,
      "ᐛ": 2436,
      "ᐞ": 2437,
      "ᐟ": 2438,
      "ᐠ": 2439,
      "ᐢ": 2440,
      "ᐣ": 2441,
      "ᐤ": 2442,
      "ᐦ": 2443,
      "ᐧ": 2444,
      "ᐨ": 2445,
      "ᐩ": 2446,
      "ᐮ": 2447,
      "ᐯ": 2448,
      "ᐰ": 2449,
      "ᐱ": 2450,
      "ᐲ": 2451,
      "ᐳ": 2452,
      "ᐴ": 2453,
      "ᐸ": 2454,
      "ᐹ": 2455,
      "ᑈ": 2456,
      "ᑉ": 2457,
      "ᑊ": 2458,
      "ᑋ": 2459,
      "ᑌ": 2460,
      "ᑍ": 2461,
      "ᑎ": 2462,
      "ᑏ": 2463,
      "ᑐ": 2464,
      "ᑑ": 2465,
      "ᑕ": 2466,
      "ᑖ": 2467,
      "ᑣ": 2468,
      "ᑥ": 2469,
      "ᑦ": 2470,
      "ᑫ": 2471,
      "ᑭ": 2472,
      "ᑮ": 2473,
      "ᑯ": 2474,
      "ᑰ": 2475,
      "ᑲ": 2476,
      "ᑳ": 2477,
      "ᑴ": 2478,
      "ᑸ": 2479,
      "ᑾ": 2480,
      "ᒀ": 2481,
      "ᒂ": 2482,
      "ᒃ": 2483,
      "ᒄ": 2484,
      "ᒉ": 2485,
      "ᒋ": 2486,
      "ᒌ": 2487,
      "ᒍ": 2488,
      "ᒎ": 2489,
      "ᒐ": 2490,
      "ᒑ": 2491,
      "ᒡ": 2492,
      "ᒣ": 2493,
      "ᒤ": 2494,
      "ᒥ": 2495,
      "ᒦ": 2496,
      "ᒧ": 2497,
      "ᒨ": 2498,
      "ᒪ": 2499,
      "ᒫ": 2500,
      "ᒺ": 2501,
      "ᒻ": 2502,
      "ᒼ": 2503,
      "ᒾ": 2504,
      "ᓀ": 2505,
      "ᓁ": 2506,
      "ᓂ": 2507,
      "ᓃ": 2508,
      "ᓄ": 2509,
      "ᓅ": 2510,
      "ᓇ": 2511,
      "ᓈ": 2512,
      "ᓍ": 2513,
      "ᓏ": 2514,
      "ᓐ": 2515,
      "ᓕ": 2516,
      "ᓖ": 2517,
      "ᓗ": 2518,
      "ᓘ": 2519,
      "ᓚ": 2520,
      "ᓛ": 2521,
      "ᓪ": 2522,
      "ᓫ": 2523,
      "ᓭ": 2524,
      "ᓮ": 2525,
      "ᓯ": 2526,
      "ᓱ": 2527,
      "ᓲ": 2528,
      "ᓴ": 2529,
      "ᓵ": 2530,
      "ᓶ": 2531,
      "ᔄ": 2532,
      "ᔅ": 2533,
      "ᔊ": 2534,
      "ᔎ": 2535,
      "ᔐ": 2536,
      "ᔑ": 2537,
      "ᔒ": 2538,
      "ᔓ": 2539,
      "ᔕ": 2540,
      "ᔥ": 2541,
      "ᔦ": 2542,
      "ᔨ": 2543,
      "ᔪ": 2544,
      "ᔫ": 2545,
      "ᔭ": 2546,
      "ᔮ": 2547,
      "ᔽ": 2548,
      "ᔾ": 2549,
      "ᕁ": 2550,
      "ᕆ": 2551,
      "ᕈ": 2552,
      "ᕉ": 2553,
      "ᕊ": 2554,
      "ᕋ": 2555,
      "ᕌ": 2556,
      "ᕍ": 2557,
      "ᕐ": 2558,
      "ᕑ": 2559,
      "ᕒ": 2560,
      "ᕓ": 2561,
      "ᕔ": 2562,
      "ᕕ": 2563,
      "ᕗ": 2564,
      "ᕙ": 2565,
      "ᕚ": 2566,
      "ᕝ": 2567,
      "ᕞ": 2568,
      "ᕟ": 2569,
      "ᕠ": 2570,
      "ᕡ": 2571,
      "ᕦ": 2572,
      "ᕪ": 2573,
      "ᕫ": 2574,
      "ᕬ": 2575,
      "ᕭ": 2576,
      "ᕮ": 2577,
      "ᕲ": 2578,
      "ᕴ": 2579,
      "ᕵ": 2580,
      "ᕷ": 2581,
      "ᕹ": 2582,
      "ᕻ": 2583,
      "ᕽ": 2584,
      "ᕿ": 2585,
      "ᖁ": 2586,
      "ᖃ": 2587,
      "ᖅ": 2588,
      "ᖆ": 2589,
      "ᖊ": 2590,
      "ᖋ": 2591,
      "ᖌ": 2592,
      "ᖍ": 2593,
      "ᖏ": 2594,
      "ᖑ": 2595,
      "ᖓ": 2596,
      "ᖕ": 2597,
      "ᖖ": 2598,
      "ᖗ": 2599,
      "ᖘ": 2600,
      "ᖙ": 2601,
      "ᖚ": 2602,
      "ᖦ": 2603,
      "ᖮ": 2604,
      "ᖴ": 2605,
      "ᖸ": 2606,
      "ᖹ": 2607,
      "ᖺ": 2608,
      "ᖻ": 2609,
      "ᖼ": 2610,
      "ᖽ": 2611,
      "ᖾ": 2612,
      "ᖿ": 2613,
      "ᗐ": 2614,
      "ᗑ": 2615,
      "ᗒ": 2616,
      "ᗕ": 2617,
      "ᗱ": 2618,
      "ᗴ": 2619,
      "ᘁ": 2620,
      "ᘂ": 2621,
      "ᘎ": 2622,
      "ᘏ": 2623,
      "ᘐ": 2624,
      "ᘓ": 2625,
      "ᘔ": 2626,
      "ᘕ": 2627,
      "ᘚ": 2628,
      "ᘛ": 2629,
      "ᘜ": 2630,
      "ᘝ": 2631,
      "ᘞ": 2632,
      "ᘡ": 2633,
      "ᘨ": 2634,
      "ᘩ": 2635,
      "ᘪ": 2636,
      "ᘭ": 2637,
      "ᙀ": 2638,
      "ᙁ": 2639,
      "ᙂ": 2640,
      "ᙅ": 2641,
      "ᙆ": 2642,
      "ᙇ": 2643,
      "ᙛ": 2644,
      "ᙜ": 2645,
      "ᙝ": 2646,
      "ᙬ": 2647,
      "᙮": 2648,
      "ក": 2649,
      "ខ": 2650,
      "គ": 2651,
      "ង": 2652,
      "ច": 2653,
      "ឆ": 2654,
      "ជ": 2655,
      "ឈ": 2656,
      "ញ": 2657,
      "ដ": 2658,
      "ឌ": 2659,
      "ណ": 2660,
      "ត": 2661,
      "ថ": 2662,
      "ទ": 2663,
      "ធ": 2664,
      "ន": 2665,
      "ប": 2666,
      "ផ": 2667,
      "ព": 2668,
      "ភ": 2669,
      "ម": 2670,
      "យ": 2671,
      "រ": 2672,
      "ល": 2673,
      "វ": 2674,
      "ឞ": 2675,
      "ស": 2676,
      "ហ": 2677,
      "ឡ": 2678,
      "អ": 2679,
      "ឱ": 2680,
      "ា": 2681,
      "ិ": 2682,
      "ី": 2683,
      "ឹ": 2684,
      "ឺ": 2685,
      "ុ": 2686,
      "ូ": 2687,
      "ួ": 2688,
      "ើ": 2689,
      "ៀ": 2690,
      "េ": 2691,
      "ែ": 2692,
      "ៃ": 2693,
      "ោ": 2694,
      "ៅ": 2695,
      "ំ": 2696,
      "ះ": 2697,
      "ៈ": 2698,
      "៉": 2699,
      "៊": 2700,
      "់": 2701,
      "៌": 2702,
      "៍": 2703,
      "័": 2704,
      "្": 2705,
      "។": 2706,
      "ៗ": 2707,
      "៝": 2708,
      "ᠠ": 2709,
      "ᠩ": 2710,
      "ᠪ": 2711,
      "ᠯ": 2712,
      "ᠰ": 2713,
      "ᠶ": 2714,
      "ᡝ": 2715,
      "ᡠ": 2716,
      "ᡡ": 2717,
      "ᡤ": 2718,
      "ᡥ": 2719,
      "ᡦ": 2720,
      "ᡨ": 2721,
      "ᡩ": 2722,
      "ᡳ": 2723,
      "ᡴ": 2724,
      "ᡶ": 2725,
      "ᥑ": 2726,
      "ᥒ": 2727,
      "ᥖ": 2728,
      "ᥙ": 2729,
      "ᥨ": 2730,
      "ᥬ": 2731,
      "ᥭ": 2732,
      "ᥰ": 2733,
      "ᥲ": 2734,
      "ᦀ": 2735,
      "ᦁ": 2736,
      "ᦂ": 2737,
      "ᦃ": 2738,
      "ᦄ": 2739,
      "ᦅ": 2740,
      "ᦆ": 2741,
      "ᦇ": 2742,
      "ᦈ": 2743,
      "ᦉ": 2744,
      "ᦊ": 2745,
      "ᦋ": 2746,
      "ᦌ": 2747,
      "ᦍ": 2748,
      "ᦎ": 2749,
      "ᦏ": 2750,
      "ᦐ": 2751,
      "ᦑ": 2752,
      "ᦒ": 2753,
      "ᦓ": 2754,
      "ᦔ": 2755,
      "ᦕ": 2756,
      "ᦖ": 2757,
      "ᦗ": 2758,
      "ᦘ": 2759,
      "ᦙ": 2760,
      "ᦚ": 2761,
      "ᦛ": 2762,
      "ᦜ": 2763,
      "ᦝ": 2764,
      "ᦞ": 2765,
      "ᦟ": 2766,
      "ᦠ": 2767,
      "ᦡ": 2768,
      "ᦢ": 2769,
      "ᦣ": 2770,
      "ᦤ": 2771,
      "ᦦ": 2772,
      "ᦧ": 2773,
      "ᦩ": 2774,
      "ᦰ": 2775,
      "ᦱ": 2776,
      "ᦲ": 2777,
      "ᦳ": 2778,
      "ᦴ": 2779,
      "ᦵ": 2780,
      "ᦶ": 2781,
      "ᦷ": 2782,
      "ᦸ": 2783,
      "ᦹ": 2784,
      "ᦺ": 2785,
      "ᦻ": 2786,
      "ᦽ": 2787,
      "ᦾ": 2788,
      "ᧀ": 2789,
      "ᧁ": 2790,
      "ᧂ": 2791,
      "ᧃ": 2792,
      "ᧄ": 2793,
      "ᧅ": 2794,
      "ᧆ": 2795,
      "ᧇ": 2796,
      "ᧈ": 2797,
      "ᧉ": 2798,
      "᧐": 2799,
      "᧑": 2800,
      "᧒": 2801,
      "᧓": 2802,
      "᧔": 2803,
      "᧖": 2804,
      "᧗": 2805,
      "᧘": 2806,
      "᧚": 2807,
      "᧞": 2808,
      "᧟": 2809,
      "ᨀ": 2810,
      "ᨁ": 2811,
      "ᨄ": 2812,
      "ᨅ": 2813,
      "ᨆ": 2814,
      "ᨈ": 2815,
      "ᨉ": 2816,
      "ᨑ": 2817,
      "ᨒ": 2818,
      "ᨓ": 2819,
      "ᨔ": 2820,
      "ᨕ": 2821,
      "ᨗ": 2822,
      "ᨘ": 2823,
      "ᨙ": 2824,
      "ᨚ": 2825,
      "ᨣ": 2826,
      "ᨦ": 2827,
      "ᨾ": 2828,
      "ᩤ": 2829,
      "ᩥ": 2830,
      "ᩬ": 2831,
      "ᩮ": 2832,
      "ᩴ": 2833,
      "ᬩ": 2834,
      "ᬮ": 2835,
      "ᬲ": 2836,
      "ᬶ": 2837,
      "᮳": 2838,
      "ᯅ": 2839,
      "᱐": 2840,
      "᱑": 2841,
      "᱒": 2842,
      "᱓": 2843,
      "᱔": 2844,
      "᱕": 2845,
      "᱖": 2846,
      "᱘": 2847,
      "᱙": 2848,
      "ᱚ": 2849,
      "ᱛ": 2850,
      "ᱜ": 2851,
      "ᱝ": 2852,
      "ᱞ": 2853,
      "ᱟ": 2854,
      "ᱠ": 2855,
      "ᱡ": 2856,
      "ᱢ": 2857,
      "ᱣ": 2858,
      "ᱤ": 2859,
      "ᱥ": 2860,
      "ᱦ": 2861,
      "ᱧ": 2862,
      "ᱨ": 2863,
      "ᱩ": 2864,
      "ᱪ": 2865,
      "ᱫ": 2866,
      "ᱬ": 2867,
      "ᱭ": 2868,
      "ᱮ": 2869,
      "ᱯ": 2870,
      "ᱰ": 2871,
      "ᱱ": 2872,
      "ᱲ": 2873,
      "ᱳ": 2874,
      "ᱴ": 2875,
      "ᱵ": 2876,
      "ᱶ": 2877,
      "ᱷ": 2878,
      "ᱸ": 2879,
      "ᱹ": 2880,
      "ᱺ": 2881,
      "ᱼ": 2882,
      "ᱽ": 2883,
      "᱾": 2884,
      "ᴀ": 2885,
      "ᴄ": 2886,
      "ᴅ": 2887,
      "ᴇ": 2888,
      "ᴉ": 2889,
      "ᴊ": 2890,
      "ᴋ": 2891,
      "ᴍ": 2892,
      "ᴏ": 2893,
      "ᴗ": 2894,
      "ᴘ": 2895,
      "ᴛ": 2896,
      "ᴜ": 2897,
      "ᴠ": 2898,
      "ᴡ": 2899,
      "ᴥ": 2900,
      "ᴫ": 2901,
      "ᴹ": 2902,
      "ᵀ": 2903,
      "ᵁ": 2904,
      "ᵈ": 2905,
      "ᵉ": 2906,
      "ᵐ": 2907,
      "ᵑ": 2908,
      "ᵒ": 2909,
      "ᵗ": 2910,
      "ᵻ": 2911,
      "ᶠ": 2912,
      "ᶯ": 2913,
      "᷆": 2914,
      "ḁ": 2915,
      "Ḍ": 2916,
      "ḍ": 2917,
      "Ḡ": 2918,
      "Ḥ": 2919,
      "ḥ": 2920,
      "Ḧ": 2921,
      "Ḫ": 2922,
      "ḫ": 2923,
      "Ḱ": 2924,
      "ḱ": 2925,
      "Ḳ": 2926,
      "ḳ": 2927,
      "Ḵ": 2928,
      "ḷ": 2929,
      "ḻ": 2930,
      "ḽ": 2931,
      "ḿ": 2932,
      "Ṁ": 2933,
      "ṁ": 2934,
      "ṃ": 2935,
      "Ṅ": 2936,
      "ṅ": 2937,
      "ṇ": 2938,
      "ṉ": 2939,
      "ṏ": 2940,
      "ṕ": 2941,
      "Ṙ": 2942,
      "Ṛ": 2943,
      "ṛ": 2944,
      "ṟ": 2945,
      "Ṣ": 2946,
      "ṣ": 2947,
      "Ṭ": 2948,
      "ṭ": 2949,
      "ṯ": 2950,
      "Ṳ": 2951,
      "ṳ": 2952,
      "Ṽ": 2953,
      "ṽ": 2954,
      "Ṿ": 2955,
      "ṿ": 2956,
      "Ẅ": 2957,
      "ẅ": 2958,
      "Ẋ": 2959,
      "ẋ": 2960,
      "ẏ": 2961,
      "ẑ": 2962,
      "Ẓ": 2963,
      "ẓ": 2964,
      "ẖ": 2965,
      "ẗ": 2966,
      "ẘ": 2967,
      "ẙ": 2968,
      "ẚ": 2969,
      "ẞ": 2970,
      "Ạ": 2971,
      "ạ": 2972,
      "Ả": 2973,
      "ả": 2974,
      "Ấ": 2975,
      "ấ": 2976,
      "ầ": 2977,
      "Ẩ": 2978,
      "ẩ": 2979,
      "ẫ": 2980,
      "Ậ": 2981,
      "ậ": 2982,
      "Ắ": 2983,
      "ắ": 2984,
      "ằ": 2985,
      "ẳ": 2986,
      "ẵ": 2987,
      "Ặ": 2988,
      "ặ": 2989,
      "Ẹ": 2990,
      "ẹ": 2991,
      "ẻ": 2992,
      "Ẽ": 2993,
      "ẽ": 2994,
      "Ế": 2995,
      "ế": 2996,
      "Ề": 2997,
      "ề": 2998,
      "Ể": 2999,
      "ể": 3000,
      "Ễ": 3001,
      "ễ": 3002,
      "Ệ": 3003,
      "ệ": 3004,
      "ỉ": 3005,
      "Ị": 3006,
      "ị": 3007,
      "Ọ": 3008,
      "ọ": 3009,
      "Ỏ": 3010,
      "ỏ": 3011,
      "Ố": 3012,
      "ố": 3013,
      "Ồ": 3014,
      "ồ": 3015,
      "ổ": 3016,
      "Ỗ": 3017,
      "ỗ": 3018,
      "Ộ": 3019,
      "ộ": 3020,
      "Ớ": 3021,
      "ớ": 3022,
      "Ờ": 3023,
      "ờ": 3024,
      "ở": 3025,
      "ỡ": 3026,
      "ợ": 3027,
      "Ụ": 3028,
      "ụ": 3029,
      "ủ": 3030,
      "Ứ": 3031,
      "ứ": 3032,
      "ừ": 3033,
      "Ử": 3034,
      "ử": 3035,
      "Ữ": 3036,
      "ữ": 3037,
      "Ự": 3038,
      "ự": 3039,
      "Ỳ": 3040,
      "ỳ": 3041,
      "ỷ": 3042,
      "Ỹ": 3043,
      "ỹ": 3044,
      "Ỽ": 3045,
      "ỽ": 3046,
      "ἀ": 3047,
      "ἁ": 3048,
      "ἂ": 3049,
      "ἃ": 3050,
      "ἄ": 3051,
      "ἅ": 3052,
      "ἆ": 3053,
      "ἇ": 3054,
      "Ἀ": 3055,
      "ἐ": 3056,
      "ἑ": 3057,
      "ἔ": 3058,
      "ἕ": 3059,
      "Ἐ": 3060,
      "Ἑ": 3061,
      "Ἔ": 3062,
      "ἠ": 3063,
      "ἡ": 3064,
      "ἢ": 3065,
      "ἣ": 3066,
      "ἤ": 3067,
      "ἥ": 3068,
      "ἦ": 3069,
      "ἧ": 3070,
      "Ἡ": 3071,
      "ἰ": 3072,
      "ἵ": 3073,
      "ἶ": 3074,
      "ἷ": 3075,
      "Ἱ": 3076,
      "ὀ": 3077,
      "ὁ": 3078,
      "ὄ": 3079,
      "ὅ": 3080,
      "Ὅ": 3081,
      "ὐ": 3082,
      "ὒ": 3083,
      "ὔ": 3084,
      "ὕ": 3085,
      "ὖ": 3086,
      "ὠ": 3087,
      "ὡ": 3088,
      "ὢ": 3089,
      "ὣ": 3090,
      "ὤ": 3091,
      "ὥ": 3092,
      "ὦ": 3093,
      "ὧ": 3094,
      "ὰ": 3095,
      "ὲ": 3096,
      "ὴ": 3097,
      "ὶ": 3098,
      "ὸ": 3099,
      "ὺ": 3100,
      "ὼ": 3101,
      "ᾀ": 3102,
      "ᾁ": 3103,
      "ᾂ": 3104,
      "ᾃ": 3105,
      "ᾄ": 3106,
      "ᾅ": 3107,
      "ᾆ": 3108,
      "ᾇ": 3109,
      "ᾈ": 3110,
      "ᾉ": 3111,
      "ᾊ": 3112,
      "ᾋ": 3113,
      "ᾌ": 3114,
      "ᾍ": 3115,
      "ᾎ": 3116,
      "ᾏ": 3117,
      "ᾐ": 3118,
      "ᾑ": 3119,
      "ᾒ": 3120,
      "ᾓ": 3121,
      "ᾔ": 3122,
      "ᾕ": 3123,
      "ᾖ": 3124,
      "ᾗ": 3125,
      "ᾘ": 3126,
      "ᾙ": 3127,
      "ᾚ": 3128,
      "ᾛ": 3129,
      "ᾜ": 3130,
      "ᾝ": 3131,
      "ᾞ": 3132,
      "ᾟ": 3133,
      "ᾠ": 3134,
      "ᾡ": 3135,
      "ᾢ": 3136,
      "ᾣ": 3137,
      "ᾤ": 3138,
      "ᾥ": 3139,
      "ᾦ": 3140,
      "ᾧ": 3141,
      "ᾨ": 3142,
      "ᾩ": 3143,
      "ᾪ": 3144,
      "ᾫ": 3145,
      "ᾬ": 3146,
      "ᾭ": 3147,
      "ᾮ": 3148,
      "ᾯ": 3149,
      "ᾲ": 3150,
      "ᾳ": 3151,
      "ᾴ": 3152,
      "ᾶ": 3153,
      "ᾷ": 3154,
      "ᾼ": 3155,
      "ῂ": 3156,
      "ῃ": 3157,
      "ῄ": 3158,
      "ῆ": 3159,
      "ῇ": 3160,
      "ῌ": 3161,
      "ῒ": 3162,
      "ῖ": 3163,
      "ῗ": 3164,
      "ῢ": 3165,
      "ῤ": 3166,
      "ῥ": 3167,
      "ῦ": 3168,
      "ῧ": 3169,
      "ῲ": 3170,
      "ῳ": 3171,
      "ῴ": 3172,
      "ῶ": 3173,
      "ῷ": 3174,
      "ῼ": 3175,
      "​": 3176,
      "‎": 3177,
      "‐": 3178,
      "‑": 3179,
      "‒": 3180,
      "–": 3181,
      "—": 3182,
      "―": 3183,
      "‖": 3184,
      "‗": 3185,
      "‘": 3186,
      "’": 3187,
      "‚": 3188,
      "‛": 3189,
      "“": 3190,
      "”": 3191,
      "„": 3192,
      "‟": 3193,
      "†": 3194,
      "‡": 3195,
      "•": 3196,
      "‣": 3197,
      "․": 3198,
      "…": 3199,
      "‧": 3200,
      "‰": 3201,
      "′": 3202,
      "″": 3203,
      "‹": 3204,
      "›": 3205,
      "※": 3206,
      "‼": 3207,
      "‽": 3208,
      "‾": 3209,
      "⁂": 3210,
      "⁃": 3211,
      "⁄": 3212,
      "⁉": 3213,
      "⁋": 3214,
      "⁎": 3215,
      "⁓": 3216,
      "⁰": 3217,
      "⁴": 3218,
      "⁵": 3219,
      "⁶": 3220,
      "⁷": 3221,
      "⁸": 3222,
      "⁹": 3223,
      "⁺": 3224,
      "⁻": 3225,
      "ⁿ": 3226,
      "₀": 3227,
      "₁": 3228,
      "₂": 3229,
      "₃": 3230,
      "₄": 3231,
      "₅": 3232,
      "₆": 3233,
      "₇": 3234,
      "₈": 3235,
      "₉": 3236,
      "₊": 3237,
      "₋": 3238,
      "₍": 3239,
      "₎": 3240,
      "ₒ": 3241,
      "ₕ": 3242,
      "ₖ": 3243,
      "ₘ": 3244,
      "ₙ": 3245,
      "ₛ": 3246,
      "ₜ": 3247,
      "₡": 3248,
      "₣": 3249,
      "₤": 3250,
      "₦": 3251,
      "₧": 3252,
      "₨": 3253,
      "₪": 3254,
      "€": 3255,
      "₮": 3256,
      "₱": 3257,
      "₲": 3258,
      "₵": 3259,
      "₹": 3260,
      "₽": 3261,
      "₾": 3262,
      "⃗": 3263,
      "⃝": 3264,
      "⃞": 3265,
      "⃣": 3266,
      "ℂ": 3267,
      "℃": 3268,
      "℄": 3269,
      "℅": 3270,
      "℉": 3271,
      "ℍ": 3272,
      "ℎ": 3273,
      "ℏ": 3274,
      "ℑ": 3275,
      "ℒ": 3276,
      "ℓ": 3277,
      "ℕ": 3278,
      "№": 3279,
      "℗": 3280,
      "ℙ": 3281,
      "ℚ": 3282,
      "ℜ": 3283,
      "ℝ": 3284,
      "™": 3285,
      "ℤ": 3286,
      "ℯ": 3287,
      "ℱ": 3288,
      "Ⅎ": 3289,
      "ℳ": 3290,
      "ℹ": 3291,
      "⅐": 3292,
      "⅑": 3293,
      "⅒": 3294,
      "⅓": 3295,
      "⅔": 3296,
      "⅕": 3297,
      "⅖": 3298,
      "⅗": 3299,
      "⅘": 3300,
      "⅙": 3301,
      "⅚": 3302,
      "⅛": 3303,
      "⅜": 3304,
      "⅝": 3305,
      "⅞": 3306,
      "⅟": 3307,
      "Ⅰ": 3308,
      "Ⅱ": 3309,
      "Ⅲ": 3310,
      "Ⅳ": 3311,
      "Ⅴ": 3312,
      "Ⅵ": 3313,
      "Ⅶ": 3314,
      "Ⅸ": 3315,
      "Ⅹ": 3316,
      "ⅾ": 3317,
      "Ↄ": 3318,
      "ↈ": 3319,
      "↉": 3320,
      "←": 3321,
      "↑": 3322,
      "→": 3323,
      "↓": 3324,
      "↔": 3325,
      "↕": 3326,
      "↖": 3327,
      "↗": 3328,
      "↙": 3329,
      "↝": 3330,
      "↥": 3331,
      "↦": 3332,
      "↩": 3333,
      "↪": 3334,
      "↭": 3335,
      "↰": 3336,
      "↱": 3337,
      "↲": 3338,
      "↳": 3339,
      "↴": 3340,
      "↵": 3341,
      "↹": 3342,
      "↻": 3343,
      "⇀": 3344,
      "⇄": 3345,
      "⇌": 3346,
      "⇐": 3347,
      "⇑": 3348,
      "⇒": 3349,
      "⇓": 3350,
      "⇔": 3351,
      "⇠": 3352,
      "⇡": 3353,
      "⇢": 3354,
      "⇣": 3355,
      "⇥": 3356,
      "⇧": 3357,
      "⇨": 3358,
      "⇾": 3359,
      "∀": 3360,
      "∂": 3361,
      "∃": 3362,
      "∅": 3363,
      "∆": 3364,
      "∇": 3365,
      "∈": 3366,
      "∉": 3367,
      "∊": 3368,
      "∎": 3369,
      "∏": 3370,
      "∑": 3371,
      "−": 3372,
      "∓": 3373,
      "∕": 3374,
      "∖": 3375,
      "∗": 3376,
      "∘": 3377,
      "∙": 3378,
      "√": 3379,
      "∛": 3380,
      "∝": 3381,
      "∞": 3382,
      "∠": 3383,
      "∣": 3384,
      "∤": 3385,
      "∥": 3386,
      "∧": 3387,
      "∨": 3388,
      "∩": 3389,
      "∪": 3390,
      "∫": 3391,
      "∮": 3392,
      "∴": 3393,
      "∵": 3394,
      "∶": 3395,
      "∷": 3396,
      "∼": 3397,
      "∽": 3398,
      "≀": 3399,
      "≃": 3400,
      "≅": 3401,
      "≈": 3402,
      "≍": 3403,
      "≐": 3404,
      "≑": 3405,
      "≔": 3406,
      "≙": 3407,
      "≠": 3408,
      "≡": 3409,
      "≣": 3410,
      "≤": 3411,
      "≥": 3412,
      "≦": 3413,
      "≧": 3414,
      "≪": 3415,
      "≫": 3416,
      "≮": 3417,
      "≹": 3418,
      "≺": 3419,
      "≻": 3420,
      "⊂": 3421,
      "⊃": 3422,
      "⊄": 3423,
      "⊆": 3424,
      "⊇": 3425,
      "⊑": 3426,
      "⊔": 3427,
      "⊕": 3428,
      "⊖": 3429,
      "⊗": 3430,
      "⊙": 3431,
      "⊜": 3432,
      "⊞": 3433,
      "⊢": 3434,
      "⊣": 3435,
      "⊤": 3436,
      "⊥": 3437,
      "⊨": 3438,
      "⊰": 3439,
      "⊱": 3440,
      "⊳": 3441,
      "⋂": 3442,
      "⋃": 3443,
      "⋅": 3444,
      "⋆": 3445,
      "⋈": 3446,
      "⋖": 3447,
      "⋗": 3448,
      "⋮": 3449,
      "⋯": 3450,
      "⋰": 3451,
      "⋱": 3452,
      "⌀": 3453,
      "⌈": 3454,
      "⌉": 3455,
      "⌊": 3456,
      "⌋": 3457,
      "⌐": 3458,
      "⌖": 3459,
      "⌘": 3460,
      "⌚": 3461,
      "⌛": 3462,
      "⌠": 3463,
      "⌡": 3464,
      "⌥": 3465,
      "⌧": 3466,
      "⌨": 3467,
      "⌺": 3468,
      "⍣": 3469,
      "⍯": 3470,
      "⍵": 3471,
      "⎈": 3472,
      "⎛": 3473,
      "⎜": 3474,
      "⎝": 3475,
      "⎞": 3476,
      "⎟": 3477,
      "⎠": 3478,
      "⎡": 3479,
      "⎢": 3480,
      "⎣": 3481,
      "⎤": 3482,
      "⎥": 3483,
      "⎦": 3484,
      "⎧": 3485,
      "⎨": 3486,
      "⎩": 3487,
      "⎪": 3488,
      "⎫": 3489,
      "⎬": 3490,
      "⎭": 3491,
      "⎯": 3492,
      "⎷": 3493,
      "⎼": 3494,
      "⏐": 3495,
      "⏟": 3496,
      "⏩": 3497,
      "⏭": 3498,
      "⏰": 3499,
      "⏱": 3500,
      "⏲": 3501,
      "⏳": 3502,
      "⏻": 3503,
      "␟": 3504,
      "␣": 3505,
      "①": 3506,
      "②": 3507,
      "③": 3508,
      "④": 3509,
      "⑤": 3510,
      "⑥": 3511,
      "⑦": 3512,
      "⑧": 3513,
      "⑨": 3514,
      "⑩": 3515,
      "⑪": 3516,
      "⑮": 3517,
      "⑰": 3518,
      "⑲": 3519,
      "⑴": 3520,
      "⑵": 3521,
      "⑶": 3522,
      "⑷": 3523,
      "⑸": 3524,
      "⑹": 3525,
      "⑺": 3526,
      "⑻": 3527,
      "⑼": 3528,
      "⑽": 3529,
      "⑾": 3530,
      "⑿": 3531,
      "Ⓐ": 3532,
      "Ⓑ": 3533,
      "Ⓒ": 3534,
      "Ⓓ": 3535,
      "Ⓦ": 3536,
      "ⓐ": 3537,
      "ⓔ": 3538,
      "ⓗ": 3539,
      "ⓘ": 3540,
      "ⓛ": 3541,
      "ⓡ": 3542,
      "ⓢ": 3543,
      "ⓣ": 3544,
      "ⓥ": 3545,
      "⓿": 3546,
      "─": 3547,
      "━": 3548,
      "│": 3549,
      "┃": 3550,
      "┌": 3551,
      "┏": 3552,
      "┐": 3553,
      "┓": 3554,
      "└": 3555,
      "┗": 3556,
      "┘": 3557,
      "┛": 3558,
      "├": 3559,
      "┡": 3560,
      "┤": 3561,
      "┩": 3562,
      "┬": 3563,
      "┳": 3564,
      "┴": 3565,
      "┼": 3566,
      "╇": 3567,
      "═": 3568,
      "║": 3569,
      "╔": 3570,
      "╕": 3571,
      "╖": 3572,
      "╗": 3573,
      "╚": 3574,
      "╛": 3575,
      "╜": 3576,
      "╝": 3577,
      "╡": 3578,
      "╢": 3579,
      "╣": 3580,
      "╧": 3581,
      "╭": 3582,
      "╮": 3583,
      "╯": 3584,
      "╰": 3585,
      "╱": 3586,
      "╷": 3587,
      "▀": 3588,
      "▁": 3589,
      "▄": 3590,
      "▇": 3591,
      "█": 3592,
      "▋": 3593,
      "▍": 3594,
      "░": 3595,
      "▒": 3596,
      "▓": 3597,
      "▔": 3598,
      "■": 3599,
      "□": 3600,
      "▢": 3601,
      "▪": 3602,
      "▫": 3603,
      "▬": 3604,
      "▭": 3605,
      "▮": 3606,
      "▯": 3607,
      "▲": 3608,
      "△": 3609,
      "▶": 3610,
      "▸": 3611,
      "▹": 3612,
      "►": 3613,
      "▼": 3614,
      "▽": 3615,
      "◀": 3616,
      "◄": 3617,
      "◆": 3618,
      "◇": 3619,
      "◊": 3620,
      "○": 3621,
      "◌": 3622,
      "◍": 3623,
      "◎": 3624,
      "●": 3625,
      "◗": 3626,
      "◦": 3627,
      "◯": 3628,
      "◻": 3629,
      "◼": 3630,
      "◾": 3631,
      "☀": 3632,
      "☁": 3633,
      "☃": 3634,
      "☄": 3635,
      "★": 3636,
      "☆": 3637,
      "☉": 3638,
      "☊": 3639,
      "☋": 3640,
      "☎": 3641,
      "☐": 3642,
      "☑": 3643,
      "☒": 3644,
      "☔": 3645,
      "☕": 3646,
      "☘": 3647,
      "☛": 3648,
      "☝": 3649,
      "☞": 3650,
      "☠": 3651,
      "☢": 3652,
      "☤": 3653,
      "☦": 3654,
      "☩": 3655,
      "☬": 3656,
      "☮": 3657,
      "☯": 3658,
      "☰": 3659,
      "☸": 3660,
      "☺": 3661,
      "☻": 3662,
      "☾": 3663,
      "☿": 3664,
      "♀": 3665,
      "♁": 3666,
      "♂": 3667,
      "♃": 3668,
      "♄": 3669,
      "♏": 3670,
      "♝": 3671,
      "♠": 3672,
      "♡": 3673,
      "♣": 3674,
      "♥": 3675,
      "♦": 3676,
      "♨": 3677,
      "♩": 3678,
      "♪": 3679,
      "♫": 3680,
      "♬": 3681,
      "♭": 3682,
      "♮": 3683,
      "♯": 3684,
      "♺": 3685,
      "♻": 3686,
      "♾": 3687,
      "♿": 3688,
      "⚒": 3689,
      "⚓": 3690,
      "⚔": 3691,
      "⚖": 3692,
      "⚗": 3693,
      "⚙": 3694,
      "⚛": 3695,
      "⚠": 3696,
      "⚡": 3697,
      "⚧": 3698,
      "⚪": 3699,
      "⚫": 3700,
      "⚬": 3701,
      "⚰": 3702,
      "⚽": 3703,
      "⚾": 3704,
      "⛅": 3705,
      "⛏": 3706,
      "⛓": 3707,
      "⛔": 3708,
      "⛰": 3709,
      "⛳": 3710,
      "⛵": 3711,
      "⛶": 3712,
      "⛷": 3713,
      "⛺": 3714,
      "✂": 3715,
      "✅": 3716,
      "✈": 3717,
      "✉": 3718,
      "✊": 3719,
      "✋": 3720,
      "✌": 3721,
      "✍": 3722,
      "✎": 3723,
      "✏": 3724,
      "✒": 3725,
      "✓": 3726,
      "✔": 3727,
      "✕": 3728,
      "✖": 3729,
      "✗": 3730,
      "✘": 3731,
      "✝": 3732,
      "✞": 3733,
      "✠": 3734,
      "✤": 3735,
      "✦": 3736,
      "✨": 3737,
      "✪": 3738,
      "✮": 3739,
      "✯": 3740,
      "✱": 3741,
      "✳": 3742,
      "✴": 3743,
      "✵": 3744,
      "✶": 3745,
      "✸": 3746,
      "✼": 3747,
      "✿": 3748,
      "❂": 3749,
      "❄": 3750,
      "❌": 3751,
      "❍": 3752,
      "❏": 3753,
      "❑": 3754,
      "❓": 3755,
      "❔": 3756,
      "❖": 3757,
      "❗": 3758,
      "❝": 3759,
      "❞": 3760,
      "❣": 3761,
      "❤": 3762,
      "❪": 3763,
      "❫": 3764,
      "❮": 3765,
      "❯": 3766,
      "❰": 3767,
      "❱": 3768,
      "➀": 3769,
      "➁": 3770,
      "➂": 3771,
      "➃": 3772,
      "➄": 3773,
      "➅": 3774,
      "➆": 3775,
      "➇": 3776,
      "➈": 3777,
      "➉": 3778,
      "➊": 3779,
      "➋": 3780,
      "➌": 3781,
      "➍": 3782,
      "➎": 3783,
      "➏": 3784,
      "➐": 3785,
      "➑": 3786,
      "➔": 3787,
      "➕": 3788,
      "➖": 3789,
      "➗": 3790,
      "➚": 3791,
      "➜": 3792,
      "➝": 3793,
      "➠": 3794,
      "➡": 3795,
      "➢": 3796,
      "➣": 3797,
      "➤": 3798,
      "➧": 3799,
      "➨": 3800,
      "➩": 3801,
      "➪": 3802,
      "➲": 3803,
      "➸": 3804,
      "➽": 3805,
      "⟇": 3806,
      "⟕": 3807,
      "⟖": 3808,
      "⟗": 3809,
      "⟨": 3810,
      "⟩": 3811,
      "⟬": 3812,
      "⟭": 3813,
      "⟮": 3814,
      "⟯": 3815,
      "⟶": 3816,
      "⟷": 3817,
      "⟹": 3818,
      "⠀": 3819,
      "⤬": 3820,
      "⤵": 3821,
      "⦁": 3822,
      "⦵": 3823,
      "⧻": 3824,
      "⧼": 3825,
      "⧽": 3826,
      "⨀": 3827,
      "⨝": 3828,
      "⨯": 3829,
      "⩽": 3830,
      "⩾": 3831,
      "⪡": 3832,
      "⪢": 3833,
      "⪯": 3834,
      "⫘": 3835,
      "⫤": 3836,
      "⫹": 3837,
      "⫺": 3838,
      "⫻": 3839,
      "⫽": 3840,
      "⫾": 3841,
      "⬃": 3842,
      "⬅": 3843,
      "⬆": 3844,
      "⬇": 3845,
      "⬍": 3846,
      "⬎": 3847,
      "⬛": 3848,
      "⬡": 3849,
      "⬤": 3850,
      "⭐": 3851,
      "⭕": 3852,
      "⮚": 3853,
      "⮜": 3854,
      "⮞": 3855,
      "Ⰰ": 3856,
      "Ⰱ": 3857,
      "Ⰲ": 3858,
      "Ⰳ": 3859,
      "Ⰴ": 3860,
      "Ⰵ": 3861,
      "Ⰺ": 3862,
      "Ⰻ": 3863,
      "Ⰽ": 3864,
      "Ⰾ": 3865,
      "Ⱀ": 3866,
      "Ⱁ": 3867,
      "Ⱂ": 3868,
      "Ⱃ": 3869,
      "Ⱄ": 3870,
      "Ⱅ": 3871,
      "Ⱎ": 3872,
      "Ⱏ": 3873,
      "Ⱐ": 3874,
      "Ⱑ": 3875,
      "Ⱔ": 3876,
      "Ⱛ": 3877,
      "ⱖ": 3878,
      "ⱦ": 3879,
      "Ɱ": 3880,
      "Ɐ": 3881,
      "ⱱ": 3882,
      "Ɀ": 3883,
      "Ⲃ": 3884,
      "ⲃ": 3885,
      "ⲅ": 3886,
      "ⲉ": 3887,
      "ⲏ": 3888,
      "ⲑ": 3889,
      "ⲓ": 3890,
      "ⲕ": 3891,
      "ⲗ": 3892,
      "ⲙ": 3893,
      "ⲛ": 3894,
      "ⲟ": 3895,
      "Ⲡ": 3896,
      "ⲡ": 3897,
      "ⲣ": 3898,
      "ⲧ": 3899,
      "Ⲫ": 3900,
      "ⲭ": 3901,
      "ⴖ": 3902,
      "ⴰ": 3903,
      "ⴱ": 3904,
      "ⴳ": 3905,
      "ⴷ": 3906,
      "ⴹ": 3907,
      "ⴻ": 3908,
      "ⴼ": 3909,
      "ⴽ": 3910,
      "ⵃ": 3911,
      "ⵇ": 3912,
      "ⵉ": 3913,
      "ⵍ": 3914,
      "ⵎ": 3915,
      "ⵏ": 3916,
      "ⵑ": 3917,
      "ⵒ": 3918,
      "ⵓ": 3919,
      "ⵔ": 3920,
      "ⵕ": 3921,
      "ⵖ": 3922,
      "ⵙ": 3923,
      "ⵚ": 3924,
      "ⵛ": 3925,
      "ⵜ": 3926,
      "ⵟ": 3927,
      "ⵡ": 3928,
      "ⵢ": 3929,
      "ⵣ": 3930,
      "ⵥ": 3931,
      "⸮": 3932,
      "⸳": 3933,
      "⸺": 3934,
      "⸻": 3935,
      "⻅": 3936,
      "⻚": 3937,
      "⼀": 3938,
      "⼤": 3939,
      "⼼": 3940,
      "⽂": 3941,
      "⽅": 3942,
      "⽇": 3943,
      "⽐": 3944,
      "⽔": 3945,
      "⽣": 3946,
      "⽤": 3947,
      "⽹": 3948,
      "⾎": 3949,
      "⾹": 3950,
      "、": 3951,
      "。": 3952,
      "々": 3953,
      "〈": 3954,
      "〉": 3955,
      "《": 3956,
      "》": 3957,
      "「": 3958,
      "」": 3959,
      "『": 3960,
      "』": 3961,
      "【": 3962,
      "】": 3963,
      "〒": 3964,
      "〔": 3965,
      "〕": 3966,
      "〖": 3967,
      "〗": 3968,
      "〚": 3969,
      "〛": 3970,
      "〜": 3971,
      "〰": 3972,
      "〱": 3973,
      "〽": 3974,
      "あ": 3975,
      "ぃ": 3976,
      "い": 3977,
      "う": 3978,
      "え": 3979,
      "お": 3980,
      "か": 3981,
      "が": 3982,
      "き": 3983,
      "ぎ": 3984,
      "く": 3985,
      "ぐ": 3986,
      "け": 3987,
      "げ": 3988,
      "こ": 3989,
      "ご": 3990,
      "さ": 3991,
      "ざ": 3992,
      "し": 3993,
      "じ": 3994,
      "す": 3995,
      "ず": 3996,
      "せ": 3997,
      "ぜ": 3998,
      "そ": 3999,
      "ぞ": 4000,
      "た": 4001,
      "だ": 4002,
      "ち": 4003,
      "っ": 4004,
      "つ": 4005,
      "て": 4006,
      "で": 4007,
      "と": 4008,
      "ど": 4009,
      "な": 4010,
      "に": 4011,
      "ね": 4012,
      "の": 4013,
      "は": 4014,
      "ば": 4015,
      "ぱ": 4016,
      "ひ": 4017,
      "び": 4018,
      "ふ": 4019,
      "ぶ": 4020,
      "へ": 4021,
      "べ": 4022,
      "ぺ": 4023,
      "ほ": 4024,
      "ぼ": 4025,
      "ぽ": 4026,
      "ま": 4027,
      "み": 4028,
      "む": 4029,
      "め": 4030,
      "も": 4031,
      "ゃ": 4032,
      "や": 4033,
      "ゅ": 4034,
      "ゆ": 4035,
      "ょ": 4036,
      "よ": 4037,
      "ら": 4038,
      "り": 4039,
      "る": 4040,
      "れ": 4041,
      "ろ": 4042,
      "わ": 4043,
      "ゐ": 4044,
      "を": 4045,
      "ん": 4046,
      "ゖ": 4047,
      "ァ": 4048,
      "ア": 4049,
      "ィ": 4050,
      "イ": 4051,
      "ゥ": 4052,
      "ウ": 4053,
      "ェ": 4054,
      "エ": 4055,
      "ォ": 4056,
      "オ": 4057,
      "カ": 4058,
      "ガ": 4059,
      "キ": 4060,
      "ギ": 4061,
      "ク": 4062,
      "グ": 4063,
      "ケ": 4064,
      "ゲ": 4065,
      "コ": 4066,
      "ゴ": 4067,
      "サ": 4068,
      "ザ": 4069,
      "シ": 4070,
      "ジ": 4071,
      "ス": 4072,
      "ズ": 4073,
      "セ": 4074,
      "ゼ": 4075,
      "ソ": 4076,
      "タ": 4077,
      "ダ": 4078,
      "チ": 4079,
      "ヂ": 4080,
      "ッ": 4081,
      "ツ": 4082,
      "テ": 4083,
      "デ": 4084,
      "ト": 4085,
      "ド": 4086,
      "ナ": 4087,
      "ニ": 4088,
      "ヌ": 4089,
      "ネ": 4090,
      "ノ": 4091,
      "ハ": 4092,
      "バ": 4093,
      "パ": 4094,
      "ヒ": 4095,
      "ビ": 4096,
      "ピ": 4097,
      "フ": 4098,
      "ブ": 4099,
      "プ": 4100,
      "ヘ": 4101,
      "ベ": 4102,
      "ペ": 4103,
      "ホ": 4104,
      "ボ": 4105,
      "ポ": 4106,
      "マ": 4107,
      "ミ": 4108,
      "ム": 4109,
      "メ": 4110,
      "モ": 4111,
      "ャ": 4112,
      "ヤ": 4113,
      "ュ": 4114,
      "ユ": 4115,
      "ョ": 4116,
      "ヨ": 4117,
      "ラ": 4118,
      "リ": 4119,
      "ル": 4120,
      "レ": 4121,
      "ロ": 4122,
      "ワ": 4123,
      "ヰ": 4124,
      "ヲ": 4125,
      "ン": 4126,
      "・": 4127,
      "ー": 4128,
      "ㄱ": 4129,
      "ㄲ": 4130,
      "ㄳ": 4131,
      "ㄴ": 4132,
      "ㄵ": 4133,
      "ㄶ": 4134,
      "ㄷ": 4135,
      "ㄸ": 4136,
      "ㄹ": 4137,
      "ㄺ": 4138,
      "ㄻ": 4139,
      "ㄼ": 4140,
      "ㄽ": 4141,
      "ㅁ": 4142,
      "ㅂ": 4143,
      "ㅃ": 4144,
      "ㅅ": 4145,
      "ㅆ": 4146,
      "ㅇ": 4147,
      "ㅈ": 4148,
      "ㅉ": 4149,
      "ㅊ": 4150,
      "ㅋ": 4151,
      "ㅌ": 4152,
      "ㅍ": 4153,
      "ㅎ": 4154,
      "ㅏ": 4155,
      "ㅐ": 4156,
      "ㅑ": 4157,
      "ㅒ": 4158,
      "ㅓ": 4159,
      "ㅔ": 4160,
      "ㅕ": 4161,
      "ㅖ": 4162,
      "ㅗ": 4163,
      "ㅘ": 4164,
      "ㅙ": 4165,
      "ㅚ": 4166,
      "ㅛ": 4167,
      "ㅜ": 4168,
      "ㅝ": 4169,
      "ㅞ": 4170,
      "ㅟ": 4171,
      "ㅠ": 4172,
      "ㅡ": 4173,
      "ㅢ": 4174,
      "ㅣ": 4175,
      "ㅤ": 4176,
      "㊙": 4177,
      "㌳": 4178,
      "㍿": 4179,
      "㎡": 4180,
      "㔀": 4181,
      "㜮": 4182,
      "㤵": 4183,
      "㷊": 4184,
      "㷟": 4185,
      "㻌": 4186,
      "㻙": 4187,
      "㻜": 4188,
      "㻝": 4189,
      "㻞": 4190,
      "㻟": 4191,
      "㻡": 4192,
      "㻢": 4193,
      "㻣": 4194,
      "㻤": 4195,
      "㻭": 4196,
      "㻮": 4197,
      "㻯": 4198,
      "㻰": 4199,
      "㻱": 4200,
      "㻳": 4201,
      "㻴": 4202,
      "㻵": 4203,
      "㻸": 4204,
      "㻹": 4205,
      "㻺": 4206,
      "㻻": 4207,
      "㻼": 4208,
      "㻾": 4209,
      "㻿": 4210,
      "㼀": 4211,
      "㼁": 4212,
      "㼂": 4213,
      "㼍": 4214,
      "㼎": 4215,
      "㼏": 4216,
      "㼐": 4217,
      "㼑": 4218,
      "㼒": 4219,
      "㼓": 4220,
      "㼔": 4221,
      "㼕": 4222,
      "㼗": 4223,
      "㼘": 4224,
      "㼙": 4225,
      "㼚": 4226,
      "㼛": 4227,
      "㼜": 4228,
      "㼞": 4229,
      "㼟": 4230,
      "㼠": 4231,
      "㼡": 4232,
      "㼢": 4233,
      "㼣": 4234,
      "㼥": 4235,
      "䁉": 4236,
      "䁒": 4237,
      "䁜": 4238,
      "䁞": 4239,
      "䁥": 4240,
      "䂾": 4241,
      "䈝": 4242,
      "䉺": 4243,
      "䊏": 4244,
      "䐟": 4245,
      "䐠": 4246,
      "䠘": 4247,
      "䠚": 4248,
      "一": 4249,
      "丁": 4250,
      "七": 4251,
      "万": 4252,
      "丈": 4253,
      "三": 4254,
      "上": 4255,
      "下": 4256,
      "不": 4257,
      "与": 4258,
      "丑": 4259,
      "专": 4260,
      "且": 4261,
      "世": 4262,
      "丘": 4263,
      "丙": 4264,
      "业": 4265,
      "东": 4266,
      "丝": 4267,
      "両": 4268,
      "两": 4269,
      "严": 4270,
      "並": 4271,
      "丧": 4272,
      "个": 4273,
      "丫": 4274,
      "中": 4275,
      "丰": 4276,
      "串": 4277,
      "临": 4278,
      "丸": 4279,
      "丹": 4280,
      "为": 4281,
      "主": 4282,
      "丼": 4283,
      "丽": 4284,
      "举": 4285,
      "乃": 4286,
      "久": 4287,
      "么": 4288,
      "义": 4289,
      "之": 4290,
      "乌": 4291,
      "乎": 4292,
      "乏": 4293,
      "乐": 4294,
      "乗": 4295,
      "乘": 4296,
      "乙": 4297,
      "九": 4298,
      "也": 4299,
      "习": 4300,
      "乡": 4301,
      "书": 4302,
      "买": 4303,
      "乱": 4304,
      "乳": 4305,
      "亀": 4306,
      "亂": 4307,
      "了": 4308,
      "予": 4309,
      "争": 4310,
      "事": 4311,
      "二": 4312,
      "于": 4313,
      "亏": 4314,
      "云": 4315,
      "互": 4316,
      "五": 4317,
      "井": 4318,
      "亚": 4319,
      "些": 4320,
      "亞": 4321,
      "亡": 4322,
      "交": 4323,
      "亦": 4324,
      "产": 4325,
      "亨": 4326,
      "享": 4327,
      "京": 4328,
      "亭": 4329,
      "亮": 4330,
      "亲": 4331,
      "亳": 4332,
      "人": 4333,
      "亿": 4334,
      "什": 4335,
      "仁": 4336,
      "仅": 4337,
      "仇": 4338,
      "今": 4339,
      "介": 4340,
      "仍": 4341,
      "从": 4342,
      "仏": 4343,
      "仓": 4344,
      "仔": 4345,
      "仕": 4346,
      "他": 4347,
      "付": 4348,
      "仙": 4349,
      "代": 4350,
      "令": 4351,
      "以": 4352,
      "仪": 4353,
      "们": 4354,
      "仮": 4355,
      "仰": 4356,
      "仲": 4357,
      "件": 4358,
      "价": 4359,
      "任": 4360,
      "份": 4361,
      "仿": 4362,
      "企": 4363,
      "伊": 4364,
      "伍": 4365,
      "伏": 4366,
      "休": 4367,
      "众": 4368,
      "优": 4369,
      "伙": 4370,
      "会": 4371,
      "伝": 4372,
      "伟": 4373,
      "传": 4374,
      "伤": 4375,
      "伦": 4376,
      "伪": 4377,
      "伯": 4378,
      "估": 4379,
      "伴": 4380,
      "伸": 4381,
      "伺": 4382,
      "似": 4383,
      "但": 4384,
      "位": 4385,
      "低": 4386,
      "住": 4387,
      "体": 4388,
      "何": 4389,
      "余": 4390,
      "佛": 4391,
      "作": 4392,
      "佟": 4393,
      "你": 4394,
      "佢": 4395,
      "佣": 4396,
      "佩": 4397,
      "佳": 4398,
      "併": 4399,
      "佷": 4400,
      "使": 4401,
      "來": 4402,
      "侈": 4403,
      "例": 4404,
      "侗": 4405,
      "供": 4406,
      "依": 4407,
      "侠": 4408,
      "侦": 4409,
      "侧": 4410,
      "侯": 4411,
      "侵": 4412,
      "便": 4413,
      "係": 4414,
      "促": 4415,
      "俄": 4416,
      "俊": 4417,
      "俐": 4418,
      "俑": 4419,
      "俗": 4420,
      "俘": 4421,
      "保": 4422,
      "信": 4423,
      "俪": 4424,
      "俭": 4425,
      "修": 4426,
      "俱": 4427,
      "俺": 4428,
      "俾": 4429,
      "倉": 4430,
      "個": 4431,
      "倍": 4432,
      "們": 4433,
      "倒": 4434,
      "候": 4435,
      "借": 4436,
      "倡": 4437,
      "値": 4438,
      "倫": 4439,
      "债": 4440,
      "值": 4441,
      "倾": 4442,
      "偃": 4443,
      "假": 4444,
      "偉": 4445,
      "偏": 4446,
      "做": 4447,
      "停": 4448,
      "健": 4449,
      "側": 4450,
      "偵": 4451,
      "偶": 4452,
      "偿": 4453,
      "傅": 4454,
      "傈": 4455,
      "備": 4456,
      "傣": 4457,
      "储": 4458,
      "催": 4459,
      "傳": 4460,
      "傷": 4461,
      "傻": 4462,
      "傾": 4463,
      "僅": 4464,
      "働": 4465,
      "像": 4466,
      "僭": 4467,
      "僮": 4468,
      "僱": 4469,
      "僳": 4470,
      "僵": 4471,
      "價": 4472,
      "儀": 4473,
      "儂": 4474,
      "億": 4475,
      "儋": 4476,
      "儒": 4477,
      "儘": 4478,
      "償": 4479,
      "優": 4480,
      "儲": 4481,
      "儷": 4482,
      "儿": 4483,
      "允": 4484,
      "元": 4485,
      "兄": 4486,
      "充": 4487,
      "先": 4488,
      "光": 4489,
      "克": 4490,
      "免": 4491,
      "兒": 4492,
      "党": 4493,
      "兜": 4494,
      "入": 4495,
      "內": 4496,
      "全": 4497,
      "兩": 4498,
      "八": 4499,
      "公": 4500,
      "六": 4501,
      "兰": 4502,
      "共": 4503,
      "关": 4504,
      "兴": 4505,
      "兵": 4506,
      "其": 4507,
      "具": 4508,
      "典": 4509,
      "兹": 4510,
      "养": 4511,
      "兼": 4512,
      "兽": 4513,
      "内": 4514,
      "円": 4515,
      "冇": 4516,
      "冈": 4517,
      "冊": 4518,
      "册": 4519,
      "再": 4520,
      "冒": 4521,
      "写": 4522,
      "军": 4523,
      "农": 4524,
      "冠": 4525,
      "冥": 4526,
      "冬": 4527,
      "冰": 4528,
      "冲": 4529,
      "决": 4530,
      "况": 4531,
      "冶": 4532,
      "冷": 4533,
      "冽": 4534,
      "净": 4535,
      "准": 4536,
      "凉": 4537,
      "凌": 4538,
      "凍": 4539,
      "减": 4540,
      "凝": 4541,
      "几": 4542,
      "凤": 4543,
      "処": 4544,
      "凭": 4545,
      "凯": 4546,
      "凱": 4547,
      "出": 4548,
      "击": 4549,
      "函": 4550,
      "刀": 4551,
      "刃": 4552,
      "分": 4553,
      "切": 4554,
      "刊": 4555,
      "刍": 4556,
      "划": 4557,
      "列": 4558,
      "刘": 4559,
      "则": 4560,
      "刚": 4561,
      "创": 4562,
      "初": 4563,
      "删": 4564,
      "判": 4565,
      "別": 4566,
      "利": 4567,
      "别": 4568,
      "到": 4569,
      "制": 4570,
      "刷": 4571,
      "券": 4572,
      "刺": 4573,
      "刻": 4574,
      "剂": 4575,
      "則": 4576,
      "削": 4577,
      "前": 4578,
      "剖": 4579,
      "剛": 4580,
      "剧": 4581,
      "剪": 4582,
      "副": 4583,
      "割": 4584,
      "創": 4585,
      "劃": 4586,
      "劇": 4587,
      "劉": 4588,
      "劑": 4589,
      "力": 4590,
      "劝": 4591,
      "办": 4592,
      "功": 4593,
      "加": 4594,
      "务": 4595,
      "劣": 4596,
      "动": 4597,
      "助": 4598,
      "努": 4599,
      "劫": 4600,
      "励": 4601,
      "劳": 4602,
      "労": 4603,
      "势": 4604,
      "勃": 4605,
      "勇": 4606,
      "勉": 4607,
      "勒": 4608,
      "動": 4609,
      "勘": 4610,
      "務": 4611,
      "勝": 4612,
      "勞": 4613,
      "募": 4614,
      "勢": 4615,
      "勤": 4616,
      "勱": 4617,
      "勵": 4618,
      "勿": 4619,
      "匀": 4620,
      "包": 4621,
      "匕": 4622,
      "化": 4623,
      "北": 4624,
      "匙": 4625,
      "匠": 4626,
      "匯": 4627,
      "匹": 4628,
      "区": 4629,
      "医": 4630,
      "匿": 4631,
      "區": 4632,
      "十": 4633,
      "千": 4634,
      "升": 4635,
      "午": 4636,
      "半": 4637,
      "卍": 4638,
      "华": 4639,
      "协": 4640,
      "卐": 4641,
      "卓": 4642,
      "協": 4643,
      "单": 4644,
      "卖": 4645,
      "南": 4646,
      "単": 4647,
      "博": 4648,
      "占": 4649,
      "卡": 4650,
      "卫": 4651,
      "印": 4652,
      "危": 4653,
      "即": 4654,
      "却": 4655,
      "卷": 4656,
      "卸": 4657,
      "卻": 4658,
      "厂": 4659,
      "厄": 4660,
      "厅": 4661,
      "历": 4662,
      "厉": 4663,
      "压": 4664,
      "厕": 4665,
      "厚": 4666,
      "原": 4667,
      "厦": 4668,
      "厲": 4669,
      "厳": 4670,
      "去": 4671,
      "县": 4672,
      "参": 4673,
      "參": 4674,
      "又": 4675,
      "叉": 4676,
      "及": 4677,
      "友": 4678,
      "双": 4679,
      "反": 4680,
      "収": 4681,
      "发": 4682,
      "叔": 4683,
      "取": 4684,
      "受": 4685,
      "变": 4686,
      "叙": 4687,
      "叛": 4688,
      "叠": 4689,
      "叢": 4690,
      "口": 4691,
      "古": 4692,
      "句": 4693,
      "另": 4694,
      "叩": 4695,
      "只": 4696,
      "叫": 4697,
      "召": 4698,
      "叭": 4699,
      "叮": 4700,
      "可": 4701,
      "台": 4702,
      "史": 4703,
      "右": 4704,
      "叶": 4705,
      "号": 4706,
      "司": 4707,
      "叹": 4708,
      "叼": 4709,
      "吁": 4710,
      "吃": 4711,
      "各": 4712,
      "合": 4713,
      "吉": 4714,
      "同": 4715,
      "名": 4716,
      "后": 4717,
      "吐": 4718,
      "向": 4719,
      "吕": 4720,
      "吗": 4721,
      "君": 4722,
      "吞": 4723,
      "否": 4724,
      "吧": 4725,
      "含": 4726,
      "听": 4727,
      "启": 4728,
      "吳": 4729,
      "吴": 4730,
      "吸": 4731,
      "吹": 4732,
      "吾": 4733,
      "呀": 4734,
      "呂": 4735,
      "呃": 4736,
      "呆": 4737,
      "告": 4738,
      "呑": 4739,
      "呒": 4740,
      "员": 4741,
      "呢": 4742,
      "呦": 4743,
      "周": 4744,
      "味": 4745,
      "呷": 4746,
      "呼": 4747,
      "命": 4748,
      "咀": 4749,
      "咁": 4750,
      "和": 4751,
      "咔": 4752,
      "咖": 4753,
      "咝": 4754,
      "咩": 4755,
      "咬": 4756,
      "咱": 4757,
      "咲": 4758,
      "咳": 4759,
      "咸": 4760,
      "咽": 4761,
      "哀": 4762,
      "品": 4763,
      "哇": 4764,
      "哈": 4765,
      "响": 4766,
      "哔": 4767,
      "員": 4768,
      "哥": 4769,
      "哨": 4770,
      "哩": 4771,
      "哪": 4772,
      "哭": 4773,
      "哮": 4774,
      "哲": 4775,
      "唐": 4776,
      "唔": 4777,
      "唞": 4778,
      "唤": 4779,
      "售": 4780,
      "唯": 4781,
      "唱": 4782,
      "商": 4783,
      "啊": 4784,
      "問": 4785,
      "啖": 4786,
      "啟": 4787,
      "啡": 4788,
      "啦": 4789,
      "啭": 4790,
      "啲": 4791,
      "啼": 4792,
      "喀": 4793,
      "善": 4794,
      "喇": 4795,
      "喉": 4796,
      "喊": 4797,
      "喘": 4798,
      "喜": 4799,
      "喝": 4800,
      "單": 4801,
      "喵": 4802,
      "営": 4803,
      "喷": 4804,
      "喺": 4805,
      "喻": 4806,
      "嗎": 4807,
      "嗣": 4808,
      "嗨": 4809,
      "嗯": 4810,
      "嗰": 4811,
      "嗲": 4812,
      "嗽": 4813,
      "嘅": 4814,
      "嘉": 4815,
      "嘗": 4816,
      "嘛": 4817,
      "嘴": 4818,
      "器": 4819,
      "噪": 4820,
      "噹": 4821,
      "嚀": 4822,
      "嚟": 4823,
      "嚣": 4824,
      "嚨": 4825,
      "嚴": 4826,
      "囊": 4827,
      "四": 4828,
      "回": 4829,
      "因": 4830,
      "团": 4831,
      "団": 4832,
      "园": 4833,
      "困": 4834,
      "囲": 4835,
      "図": 4836,
      "围": 4837,
      "固": 4838,
      "国": 4839,
      "图": 4840,
      "圃": 4841,
      "圈": 4842,
      "國": 4843,
      "圏": 4844,
      "園": 4845,
      "圓": 4846,
      "圖": 4847,
      "團": 4848,
      "土": 4849,
      "圣": 4850,
      "圧": 4851,
      "在": 4852,
      "地": 4853,
      "圳": 4854,
      "场": 4855,
      "圾": 4856,
      "址": 4857,
      "坂": 4858,
      "均": 4859,
      "坊": 4860,
      "坎": 4861,
      "坏": 4862,
      "坐": 4863,
      "块": 4864,
      "坚": 4865,
      "坝": 4866,
      "坠": 4867,
      "坡": 4868,
      "坤": 4869,
      "坦": 4870,
      "垂": 4871,
      "垃": 4872,
      "型": 4873,
      "垒": 4874,
      "垣": 4875,
      "垫": 4876,
      "垮": 4877,
      "埃": 4878,
      "埋": 4879,
      "城": 4880,
      "域": 4881,
      "埠": 4882,
      "執": 4883,
      "培": 4884,
      "基": 4885,
      "埼": 4886,
      "堂": 4887,
      "堆": 4888,
      "堕": 4889,
      "堡": 4890,
      "堤": 4891,
      "堰": 4892,
      "報": 4893,
      "場": 4894,
      "堵": 4895,
      "塊": 4896,
      "塌": 4897,
      "塔": 4898,
      "塗": 4899,
      "塘": 4900,
      "塞": 4901,
      "填": 4902,
      "境": 4903,
      "墓": 4904,
      "増": 4905,
      "墙": 4906,
      "增": 4907,
      "墨": 4908,
      "墸": 4909,
      "壁": 4910,
      "壇": 4911,
      "壊": 4912,
      "壓": 4913,
      "壞": 4914,
      "壤": 4915,
      "壥": 4916,
      "士": 4917,
      "壬": 4918,
      "壮": 4919,
      "声": 4920,
      "売": 4921,
      "壳": 4922,
      "壶": 4923,
      "处": 4924,
      "备": 4925,
      "変": 4926,
      "复": 4927,
      "夏": 4928,
      "夕": 4929,
      "外": 4930,
      "多": 4931,
      "夜": 4932,
      "够": 4933,
      "夠": 4934,
      "夢": 4935,
      "大": 4936,
      "天": 4937,
      "太": 4938,
      "夫": 4939,
      "央": 4940,
      "失": 4941,
      "头": 4942,
      "夷": 4943,
      "夹": 4944,
      "夺": 4945,
      "夾": 4946,
      "奇": 4947,
      "奈": 4948,
      "奋": 4949,
      "奎": 4950,
      "奏": 4951,
      "奖": 4952,
      "套": 4953,
      "奥": 4954,
      "奮": 4955,
      "女": 4956,
      "奴": 4957,
      "奶": 4958,
      "她": 4959,
      "好": 4960,
      "如": 4961,
      "妄": 4962,
      "妇": 4963,
      "妈": 4964,
      "妖": 4965,
      "妛": 4966,
      "妞": 4967,
      "妤": 4968,
      "妮": 4969,
      "妻": 4970,
      "始": 4971,
      "姐": 4972,
      "姓": 4973,
      "委": 4974,
      "姚": 4975,
      "姜": 4976,
      "姝": 4977,
      "姬": 4978,
      "姮": 4979,
      "威": 4980,
      "娃": 4981,
      "娄": 4982,
      "娅": 4983,
      "娘": 4984,
      "娛": 4985,
      "娜": 4986,
      "娟": 4987,
      "娡": 4988,
      "娥": 4989,
      "娱": 4990,
      "婁": 4991,
      "婕": 4992,
      "婚": 4993,
      "婦": 4994,
      "婭": 4995,
      "婴": 4996,
      "媒": 4997,
      "嫌": 4998,
      "嫦": 4999,
      "嫩": 5000,
      "嬉": 5001,
      "嬰": 5002,
      "嬲": 5003,
      "子": 5004,
      "孔": 5005,
      "孕": 5006,
      "字": 5007,
      "存": 5008,
      "孙": 5009,
      "孜": 5010,
      "孝": 5011,
      "孟": 5012,
      "季": 5013,
      "孤": 5014,
      "学": 5015,
      "孩": 5016,
      "孫": 5017,
      "孰": 5018,
      "學": 5019,
      "宁": 5020,
      "它": 5021,
      "宅": 5022,
      "宇": 5023,
      "守": 5024,
      "安": 5025,
      "宋": 5026,
      "完": 5027,
      "宏": 5028,
      "宗": 5029,
      "官": 5030,
      "宙": 5031,
      "定": 5032,
      "宛": 5033,
      "宜": 5034,
      "宝": 5035,
      "实": 5036,
      "実": 5037,
      "宠": 5038,
      "审": 5039,
      "客": 5040,
      "宣": 5041,
      "室": 5042,
      "宪": 5043,
      "宫": 5044,
      "宮": 5045,
      "害": 5046,
      "家": 5047,
      "宸": 5048,
      "容": 5049,
      "宽": 5050,
      "宾": 5051,
      "宿": 5052,
      "寄": 5053,
      "密": 5054,
      "富": 5055,
      "寒": 5056,
      "寓": 5057,
      "寔": 5058,
      "寛": 5059,
      "寝": 5060,
      "察": 5061,
      "實": 5062,
      "寧": 5063,
      "審": 5064,
      "寫": 5065,
      "寶": 5066,
      "对": 5067,
      "寺": 5068,
      "寻": 5069,
      "导": 5070,
      "対": 5071,
      "寿": 5072,
      "封": 5073,
      "射": 5074,
      "将": 5075,
      "將": 5076,
      "專": 5077,
      "尉": 5078,
      "尊": 5079,
      "尋": 5080,
      "對": 5081,
      "導": 5082,
      "小": 5083,
      "少": 5084,
      "尔": 5085,
      "尖": 5086,
      "尚": 5087,
      "尝": 5088,
      "尤": 5089,
      "就": 5090,
      "尸": 5091,
      "尺": 5092,
      "尼": 5093,
      "尽": 5094,
      "尾": 5095,
      "尿": 5096,
      "局": 5097,
      "屁": 5098,
      "层": 5099,
      "居": 5100,
      "屆": 5101,
      "屈": 5102,
      "届": 5103,
      "屋": 5104,
      "屎": 5105,
      "屏": 5106,
      "展": 5107,
      "属": 5108,
      "屠": 5109,
      "層": 5110,
      "屬": 5111,
      "屯": 5112,
      "山": 5113,
      "屿": 5114,
      "岁": 5115,
      "岐": 5116,
      "岑": 5117,
      "岗": 5118,
      "岛": 5119,
      "岡": 5120,
      "岩": 5121,
      "岭": 5122,
      "岳": 5123,
      "岸": 5124,
      "峡": 5125,
      "峥": 5126,
      "峨": 5127,
      "峪": 5128,
      "峰": 5129,
      "島": 5130,
      "崃": 5131,
      "崇": 5132,
      "崎": 5133,
      "崖": 5134,
      "崩": 5135,
      "崴": 5136,
      "嵊": 5137,
      "嵌": 5138,
      "嶼": 5139,
      "巍": 5140,
      "川": 5141,
      "州": 5142,
      "巡": 5143,
      "巢": 5144,
      "工": 5145,
      "左": 5146,
      "巧": 5147,
      "巨": 5148,
      "巩": 5149,
      "差": 5150,
      "己": 5151,
      "已": 5152,
      "巳": 5153,
      "巴": 5154,
      "巻": 5155,
      "币": 5156,
      "市": 5157,
      "布": 5158,
      "师": 5159,
      "帊": 5160,
      "希": 5161,
      "帐": 5162,
      "帕": 5163,
      "帝": 5164,
      "带": 5165,
      "帧": 5166,
      "師": 5167,
      "席": 5168,
      "帮": 5169,
      "帳": 5170,
      "帶": 5171,
      "常": 5172,
      "幂": 5173,
      "幅": 5174,
      "幕": 5175,
      "幡": 5176,
      "幣": 5177,
      "幫": 5178,
      "干": 5179,
      "平": 5180,
      "年": 5181,
      "并": 5182,
      "幸": 5183,
      "幹": 5184,
      "幻": 5185,
      "幾": 5186,
      "广": 5187,
      "庁": 5188,
      "広": 5189,
      "庄": 5190,
      "庆": 5191,
      "床": 5192,
      "序": 5193,
      "庐": 5194,
      "库": 5195,
      "应": 5196,
      "底": 5197,
      "店": 5198,
      "庙": 5199,
      "庚": 5200,
      "府": 5201,
      "庞": 5202,
      "废": 5203,
      "度": 5204,
      "座": 5205,
      "庫": 5206,
      "庭": 5207,
      "庶": 5208,
      "康": 5209,
      "庸": 5210,
      "廁": 5211,
      "廉": 5212,
      "廊": 5213,
      "廟": 5214,
      "廢": 5215,
      "廣": 5216,
      "廳": 5217,
      "延": 5218,
      "建": 5219,
      "廿": 5220,
      "开": 5221,
      "异": 5222,
      "弃": 5223,
      "式": 5224,
      "引": 5225,
      "弗": 5226,
      "弘": 5227,
      "弟": 5228,
      "张": 5229,
      "弥": 5230,
      "弦": 5231,
      "弧": 5232,
      "弱": 5233,
      "張": 5234,
      "強": 5235,
      "弹": 5236,
      "强": 5237,
      "彁": 5238,
      "彆": 5239,
      "彈": 5240,
      "归": 5241,
      "当": 5242,
      "录": 5243,
      "彙": 5244,
      "彝": 5245,
      "形": 5246,
      "彤": 5247,
      "彦": 5248,
      "彩": 5249,
      "彬": 5250,
      "彭": 5251,
      "影": 5252,
      "役": 5253,
      "彻": 5254,
      "彼": 5255,
      "往": 5256,
      "征": 5257,
      "径": 5258,
      "待": 5259,
      "很": 5260,
      "律": 5261,
      "後": 5262,
      "徐": 5263,
      "徑": 5264,
      "徒": 5265,
      "従": 5266,
      "得": 5267,
      "從": 5268,
      "御": 5269,
      "復": 5270,
      "循": 5271,
      "微": 5272,
      "徳": 5273,
      "徴": 5274,
      "徵": 5275,
      "德": 5276,
      "徹": 5277,
      "徽": 5278,
      "心": 5279,
      "必": 5280,
      "忆": 5281,
      "忌": 5282,
      "忍": 5283,
      "忑": 5284,
      "忒": 5285,
      "志": 5286,
      "忘": 5287,
      "忙": 5288,
      "応": 5289,
      "忠": 5290,
      "忧": 5291,
      "快": 5292,
      "念": 5293,
      "忻": 5294,
      "忽": 5295,
      "怀": 5296,
      "态": 5297,
      "怎": 5298,
      "怒": 5299,
      "怕": 5300,
      "怖": 5301,
      "思": 5302,
      "急": 5303,
      "性": 5304,
      "怪": 5305,
      "总": 5306,
      "恋": 5307,
      "恐": 5308,
      "恒": 5309,
      "恕": 5310,
      "恢": 5311,
      "恤": 5312,
      "恩": 5313,
      "恭": 5314,
      "息": 5315,
      "恰": 5316,
      "恶": 5317,
      "恺": 5318,
      "悅": 5319,
      "悉": 5320,
      "悌": 5321,
      "悔": 5322,
      "悟": 5323,
      "患": 5324,
      "您": 5325,
      "悪": 5326,
      "悬": 5327,
      "悲": 5328,
      "悼": 5329,
      "情": 5330,
      "惊": 5331,
      "惑": 5332,
      "惕": 5333,
      "惟": 5334,
      "惠": 5335,
      "惡": 5336,
      "惮": 5337,
      "惯": 5338,
      "惱": 5339,
      "想": 5340,
      "愁": 5341,
      "愉": 5342,
      "意": 5343,
      "愚": 5344,
      "愛": 5345,
      "感": 5346,
      "愠": 5347,
      "愤": 5348,
      "愿": 5349,
      "慈": 5350,
      "態": 5351,
      "慎": 5352,
      "慕": 5353,
      "慢": 5354,
      "慧": 5355,
      "慮": 5356,
      "慶": 5357,
      "憤": 5358,
      "憲": 5359,
      "憶": 5360,
      "懂": 5361,
      "懇": 5362,
      "懈": 5363,
      "應": 5364,
      "懶": 5365,
      "懷": 5366,
      "懾": 5367,
      "戊": 5368,
      "戏": 5369,
      "成": 5370,
      "我": 5371,
      "戒": 5372,
      "或": 5373,
      "战": 5374,
      "戦": 5375,
      "截": 5376,
      "戰": 5377,
      "戴": 5378,
      "戶": 5379,
      "户": 5380,
      "戸": 5381,
      "戻": 5382,
      "戾": 5383,
      "房": 5384,
      "所": 5385,
      "扁": 5386,
      "扇": 5387,
      "手": 5388,
      "才": 5389,
      "扎": 5390,
      "扑": 5391,
      "打": 5392,
      "扔": 5393,
      "托": 5394,
      "扣": 5395,
      "执": 5396,
      "扩": 5397,
      "扫": 5398,
      "扬": 5399,
      "扮": 5400,
      "扰": 5401,
      "扱": 5402,
      "扶": 5403,
      "批": 5404,
      "找": 5405,
      "承": 5406,
      "技": 5407,
      "抄": 5408,
      "把": 5409,
      "抑": 5410,
      "抓": 5411,
      "投": 5412,
      "抖": 5413,
      "抗": 5414,
      "折": 5415,
      "抚": 5416,
      "抛": 5417,
      "択": 5418,
      "抢": 5419,
      "护": 5420,
      "报": 5421,
      "抨": 5422,
      "披": 5423,
      "抬": 5424,
      "抱": 5425,
      "抵": 5426,
      "抹": 5427,
      "押": 5428,
      "抽": 5429,
      "担": 5430,
      "拆": 5431,
      "拉": 5432,
      "拍": 5433,
      "拎": 5434,
      "拏": 5435,
      "拒": 5436,
      "拓": 5437,
      "拔": 5438,
      "拖": 5439,
      "拘": 5440,
      "招": 5441,
      "拜": 5442,
      "拟": 5443,
      "拡": 5444,
      "拥": 5445,
      "拦": 5446,
      "拨": 5447,
      "择": 5448,
      "括": 5449,
      "拳": 5450,
      "拴": 5451,
      "拷": 5452,
      "拼": 5453,
      "拽": 5454,
      "拿": 5455,
      "持": 5456,
      "指": 5457,
      "按": 5458,
      "挑": 5459,
      "挙": 5460,
      "挚": 5461,
      "挤": 5462,
      "挥": 5463,
      "挧": 5464,
      "挪": 5465,
      "振": 5466,
      "挽": 5467,
      "挿": 5468,
      "捂": 5469,
      "捆": 5470,
      "捐": 5471,
      "捕": 5472,
      "捜": 5473,
      "损": 5474,
      "换": 5475,
      "捧": 5476,
      "据": 5477,
      "捷": 5478,
      "掀": 5479,
      "掃": 5480,
      "授": 5481,
      "掉": 5482,
      "掌": 5483,
      "排": 5484,
      "掖": 5485,
      "掘": 5486,
      "掛": 5487,
      "掠": 5488,
      "採": 5489,
      "探": 5490,
      "接": 5491,
      "控": 5492,
      "推": 5493,
      "掩": 5494,
      "措": 5495,
      "掬": 5496,
      "掲": 5497,
      "掹": 5498,
      "描": 5499,
      "提": 5500,
      "插": 5501,
      "換": 5502,
      "握": 5503,
      "揭": 5504,
      "援": 5505,
      "揸": 5506,
      "搁": 5507,
      "損": 5508,
      "搏": 5509,
      "搗": 5510,
      "搜": 5511,
      "搞": 5512,
      "搬": 5513,
      "搭": 5514,
      "搵": 5515,
      "携": 5516,
      "摄": 5517,
      "摇": 5518,
      "摘": 5519,
      "摧": 5520,
      "摩": 5521,
      "摸": 5522,
      "摹": 5523,
      "摺": 5524,
      "撃": 5525,
      "撞": 5526,
      "撤": 5527,
      "播": 5528,
      "撮": 5529,
      "撰": 5530,
      "撳": 5531,
      "撼": 5532,
      "擁": 5533,
      "擇": 5534,
      "擊": 5535,
      "擋": 5536,
      "操": 5537,
      "擎": 5538,
      "擔": 5539,
      "擘": 5540,
      "據": 5541,
      "擠": 5542,
      "擤": 5543,
      "擦": 5544,
      "擬": 5545,
      "擴": 5546,
      "擺": 5547,
      "攀": 5548,
      "攙": 5549,
      "攝": 5550,
      "攬": 5551,
      "支": 5552,
      "收": 5553,
      "攸": 5554,
      "改": 5555,
      "攻": 5556,
      "放": 5557,
      "政": 5558,
      "故": 5559,
      "效": 5560,
      "敌": 5561,
      "敎": 5562,
      "敏": 5563,
      "救": 5564,
      "敘": 5565,
      "教": 5566,
      "散": 5567,
      "敦": 5568,
      "敬": 5569,
      "数": 5570,
      "敲": 5571,
      "整": 5572,
      "數": 5573,
      "文": 5574,
      "斉": 5575,
      "斌": 5576,
      "斎": 5577,
      "斐": 5578,
      "斗": 5579,
      "料": 5580,
      "斜": 5581,
      "断": 5582,
      "斯": 5583,
      "新": 5584,
      "方": 5585,
      "於": 5586,
      "施": 5587,
      "旁": 5588,
      "旅": 5589,
      "旋": 5590,
      "族": 5591,
      "无": 5592,
      "既": 5593,
      "日": 5594,
      "旦": 5595,
      "旧": 5596,
      "旨": 5597,
      "早": 5598,
      "旬": 5599,
      "旱": 5600,
      "时": 5601,
      "昆": 5602,
      "昌": 5603,
      "明": 5604,
      "易": 5605,
      "星": 5606,
      "映": 5607,
      "春": 5608,
      "昨": 5609,
      "昭": 5610,
      "是": 5611,
      "昶": 5612,
      "显": 5613,
      "時": 5614,
      "晃": 5615,
      "晋": 5616,
      "晒": 5617,
      "晓": 5618,
      "晕": 5619,
      "晚": 5620,
      "晟": 5621,
      "晤": 5622,
      "晦": 5623,
      "晨": 5624,
      "普": 5625,
      "景": 5626,
      "晴": 5627,
      "晶": 5628,
      "智": 5629,
      "暂": 5630,
      "暃": 5631,
      "暇": 5632,
      "暑": 5633,
      "暖": 5634,
      "暗": 5635,
      "暢": 5636,
      "暨": 5637,
      "暫": 5638,
      "暮": 5639,
      "暴": 5640,
      "曆": 5641,
      "曉": 5642,
      "曌": 5643,
      "曜": 5644,
      "曝": 5645,
      "曬": 5646,
      "曰": 5647,
      "曲": 5648,
      "更": 5649,
      "書": 5650,
      "曹": 5651,
      "曼": 5652,
      "曾": 5653,
      "替": 5654,
      "最": 5655,
      "會": 5656,
      "月": 5657,
      "有": 5658,
      "朋": 5659,
      "服": 5660,
      "朔": 5661,
      "朗": 5662,
      "望": 5663,
      "朝": 5664,
      "期": 5665,
      "木": 5666,
      "未": 5667,
      "末": 5668,
      "本": 5669,
      "术": 5670,
      "朱": 5671,
      "朴": 5672,
      "朵": 5673,
      "机": 5674,
      "杀": 5675,
      "杂": 5676,
      "权": 5677,
      "杆": 5678,
      "杉": 5679,
      "李": 5680,
      "杏": 5681,
      "材": 5682,
      "村": 5683,
      "杜": 5684,
      "杞": 5685,
      "束": 5686,
      "杠": 5687,
      "条": 5688,
      "来": 5689,
      "杨": 5690,
      "杭": 5691,
      "杯": 5692,
      "杰": 5693,
      "東": 5694,
      "松": 5695,
      "板": 5696,
      "极": 5697,
      "构": 5698,
      "析": 5699,
      "林": 5700,
      "枚": 5701,
      "果": 5702,
      "枝": 5703,
      "枣": 5704,
      "枪": 5705,
      "枯": 5706,
      "枱": 5707,
      "枳": 5708,
      "架": 5709,
      "枸": 5710,
      "柄": 5711,
      "柏": 5712,
      "某": 5713,
      "柑": 5714,
      "染": 5715,
      "柔": 5716,
      "柚": 5717,
      "柜": 5718,
      "柠": 5719,
      "查": 5720,
      "柯": 5721,
      "柳": 5722,
      "柴": 5723,
      "査": 5724,
      "栀": 5725,
      "栄": 5726,
      "标": 5727,
      "栈": 5728,
      "栏": 5729,
      "树": 5730,
      "栓": 5731,
      "栖": 5732,
      "校": 5733,
      "株": 5734,
      "样": 5735,
      "核": 5736,
      "根": 5737,
      "格": 5738,
      "桂": 5739,
      "桃": 5740,
      "框": 5741,
      "案": 5742,
      "桌": 5743,
      "桐": 5744,
      "桑": 5745,
      "桓": 5746,
      "桔": 5747,
      "档": 5748,
      "桥": 5749,
      "桦": 5750,
      "桶": 5751,
      "梁": 5752,
      "梅": 5753,
      "梆": 5754,
      "梓": 5755,
      "梗": 5756,
      "條": 5757,
      "梦": 5758,
      "梧": 5759,
      "梨": 5760,
      "梯": 5761,
      "械": 5762,
      "梳": 5763,
      "检": 5764,
      "棉": 5765,
      "棒": 5766,
      "棕": 5767,
      "棗": 5768,
      "森": 5769,
      "棱": 5770,
      "植": 5771,
      "椒": 5772,
      "検": 5773,
      "椦": 5774,
      "楚": 5775,
      "楞": 5776,
      "業": 5777,
      "極": 5778,
      "楷": 5779,
      "楼": 5780,
      "楽": 5781,
      "概": 5782,
      "榆": 5783,
      "榈": 5784,
      "榎": 5785,
      "榴": 5786,
      "構": 5787,
      "様": 5788,
      "槞": 5789,
      "樂": 5790,
      "樋": 5791,
      "樓": 5792,
      "樗": 5793,
      "標": 5794,
      "樟": 5795,
      "模": 5796,
      "樣": 5797,
      "権": 5798,
      "横": 5799,
      "樹": 5800,
      "橋": 5801,
      "橘": 5802,
      "機": 5803,
      "橡": 5804,
      "橫": 5805,
      "檔": 5806,
      "檢": 5807,
      "檬": 5808,
      "櫃": 5809,
      "欄": 5810,
      "權": 5811,
      "欠": 5812,
      "次": 5813,
      "欢": 5814,
      "欣": 5815,
      "欧": 5816,
      "欲": 5817,
      "欽": 5818,
      "款": 5819,
      "歉": 5820,
      "歌": 5821,
      "歐": 5822,
      "歡": 5823,
      "止": 5824,
      "正": 5825,
      "此": 5826,
      "步": 5827,
      "武": 5828,
      "歧": 5829,
      "歩": 5830,
      "歲": 5831,
      "歴": 5832,
      "歷": 5833,
      "歸": 5834,
      "歹": 5835,
      "死": 5836,
      "殊": 5837,
      "残": 5838,
      "殖": 5839,
      "殲": 5840,
      "殴": 5841,
      "段": 5842,
      "殺": 5843,
      "殿": 5844,
      "毁": 5845,
      "毅": 5846,
      "母": 5847,
      "毎": 5848,
      "每": 5849,
      "毒": 5850,
      "比": 5851,
      "毕": 5852,
      "毛": 5853,
      "氏": 5854,
      "民": 5855,
      "气": 5856,
      "気": 5857,
      "氣": 5858,
      "氧": 5859,
      "水": 5860,
      "永": 5861,
      "氾": 5862,
      "汁": 5863,
      "求": 5864,
      "汇": 5865,
      "汉": 5866,
      "汕": 5867,
      "汗": 5868,
      "汝": 5869,
      "江": 5870,
      "池": 5871,
      "污": 5872,
      "汤": 5873,
      "汨": 5874,
      "汪": 5875,
      "決": 5876,
      "汽": 5877,
      "汾": 5878,
      "沁": 5879,
      "沂": 5880,
      "沃": 5881,
      "沅": 5882,
      "沈": 5883,
      "沉": 5884,
      "沒": 5885,
      "沙": 5886,
      "沟": 5887,
      "没": 5888,
      "沧": 5889,
      "河": 5890,
      "油": 5891,
      "治": 5892,
      "沾": 5893,
      "沿": 5894,
      "況": 5895,
      "泉": 5896,
      "泊": 5897,
      "法": 5898,
      "泛": 5899,
      "泡": 5900,
      "波": 5901,
      "泣": 5902,
      "泥": 5903,
      "注": 5904,
      "泪": 5905,
      "泰": 5906,
      "泵": 5907,
      "泸": 5908,
      "泻": 5909,
      "泽": 5910,
      "洁": 5911,
      "洋": 5912,
      "洗": 5913,
      "洛": 5914,
      "洞": 5915,
      "津": 5916,
      "洪": 5917,
      "洮": 5918,
      "洱": 5919,
      "洲": 5920,
      "活": 5921,
      "洽": 5922,
      "派": 5923,
      "流": 5924,
      "浅": 5925,
      "浆": 5926,
      "测": 5927,
      "济": 5928,
      "浏": 5929,
      "浑": 5930,
      "浙": 5931,
      "浣": 5932,
      "浦": 5933,
      "浩": 5934,
      "浪": 5935,
      "浮": 5936,
      "海": 5937,
      "浸": 5938,
      "涂": 5939,
      "消": 5940,
      "涉": 5941,
      "涌": 5942,
      "涕": 5943,
      "涛": 5944,
      "涟": 5945,
      "润": 5946,
      "涩": 5947,
      "涯": 5948,
      "液": 5949,
      "涵": 5950,
      "涿": 5951,
      "淄": 5952,
      "淆": 5953,
      "淖": 5954,
      "淘": 5955,
      "淡": 5956,
      "淨": 5957,
      "淮": 5958,
      "深": 5959,
      "淳": 5960,
      "混": 5961,
      "添": 5962,
      "清": 5963,
      "済": 5964,
      "渐": 5965,
      "渔": 5966,
      "減": 5967,
      "渠": 5968,
      "渡": 5969,
      "温": 5970,
      "測": 5971,
      "渭": 5972,
      "港": 5973,
      "渲": 5974,
      "渴": 5975,
      "游": 5976,
      "渺": 5977,
      "湖": 5978,
      "湘": 5979,
      "湛": 5980,
      "湯": 5981,
      "湾": 5982,
      "湿": 5983,
      "満": 5984,
      "溃": 5985,
      "源": 5986,
      "準": 5987,
      "溜": 5988,
      "溝": 5989,
      "溧": 5990,
      "溪": 5991,
      "溫": 5992,
      "滁": 5993,
      "滅": 5994,
      "滋": 5995,
      "滑": 5996,
      "滕": 5997,
      "滚": 5998,
      "滝": 5999,
      "满": 6000,
      "滤": 6001,
      "滥": 6002,
      "滨": 6003,
      "滴": 6004,
      "滿": 6005,
      "漂": 6006,
      "漏": 6007,
      "演": 6008,
      "漠": 6009,
      "漢": 6010,
      "漫": 6011,
      "漯": 6012,
      "漱": 6013,
      "漳": 6014,
      "潍": 6015,
      "潘": 6016,
      "潜": 6017,
      "潦": 6018,
      "潭": 6019,
      "潮": 6020,
      "潰": 6021,
      "澄": 6022,
      "澔": 6023,
      "澡": 6024,
      "澧": 6025,
      "澳": 6026,
      "激": 6027,
      "濃": 6028,
      "濒": 6029,
      "濟": 6030,
      "濮": 6031,
      "瀉": 6032,
      "灣": 6033,
      "火": 6034,
      "灭": 6035,
      "灯": 6036,
      "灰": 6037,
      "灵": 6038,
      "灼": 6039,
      "灾": 6040,
      "灿": 6041,
      "炎": 6042,
      "炒": 6043,
      "炙": 6044,
      "炜": 6045,
      "炫": 6046,
      "炭": 6047,
      "炮": 6048,
      "炳": 6049,
      "炸": 6050,
      "点": 6051,
      "為": 6052,
      "炼": 6053,
      "烁": 6054,
      "烂": 6055,
      "烈": 6056,
      "烏": 6057,
      "烛": 6058,
      "烟": 6059,
      "烤": 6060,
      "烦": 6061,
      "烧": 6062,
      "烨": 6063,
      "烫": 6064,
      "热": 6065,
      "烹": 6066,
      "焉": 6067,
      "無": 6068,
      "焦": 6069,
      "焱": 6070,
      "然": 6071,
      "煅": 6072,
      "煌": 6073,
      "煜": 6074,
      "煤": 6075,
      "煦": 6076,
      "照": 6077,
      "煩": 6078,
      "煽": 6079,
      "熄": 6080,
      "熊": 6081,
      "熔": 6082,
      "熟": 6083,
      "熱": 6084,
      "燃": 6085,
      "燕": 6086,
      "燥": 6087,
      "燦": 6088,
      "爆": 6089,
      "爛": 6090,
      "爨": 6091,
      "爪": 6092,
      "爬": 6093,
      "爭": 6094,
      "爱": 6095,
      "爲": 6096,
      "父": 6097,
      "爸": 6098,
      "爹": 6099,
      "爽": 6100,
      "爾": 6101,
      "片": 6102,
      "版": 6103,
      "牌": 6104,
      "牒": 6105,
      "牙": 6106,
      "牛": 6107,
      "牡": 6108,
      "牢": 6109,
      "牧": 6110,
      "物": 6111,
      "牵": 6112,
      "特": 6113,
      "犀": 6114,
      "犁": 6115,
      "犬": 6116,
      "犯": 6117,
      "状": 6118,
      "狀": 6119,
      "狂": 6120,
      "狐": 6121,
      "狗": 6122,
      "狩": 6123,
      "独": 6124,
      "狭": 6125,
      "狮": 6126,
      "狱": 6127,
      "狸": 6128,
      "猕": 6129,
      "猛": 6130,
      "猩": 6131,
      "猪": 6132,
      "猫": 6133,
      "献": 6134,
      "猴": 6135,
      "猿": 6136,
      "獎": 6137,
      "獲": 6138,
      "獵": 6139,
      "獺": 6140,
      "獻": 6141,
      "玄": 6142,
      "率": 6143,
      "玉": 6144,
      "王": 6145,
      "玖": 6146,
      "玛": 6147,
      "玩": 6148,
      "玮": 6149,
      "环": 6150,
      "现": 6151,
      "玲": 6152,
      "玻": 6153,
      "珀": 6154,
      "珂": 6155,
      "珍": 6156,
      "珠": 6157,
      "班": 6158,
      "珲": 6159,
      "現": 6160,
      "球": 6161,
      "理": 6162,
      "琐": 6163,
      "琢": 6164,
      "琥": 6165,
      "琴": 6166,
      "琼": 6167,
      "瑜": 6168,
      "瑞": 6169,
      "瑟": 6170,
      "瑤": 6171,
      "瑪": 6172,
      "璃": 6173,
      "璇": 6174,
      "環": 6175,
      "璽": 6176,
      "瓜": 6177,
      "瓣": 6178,
      "瓦": 6179,
      "瓯": 6180,
      "甘": 6181,
      "甚": 6182,
      "甜": 6183,
      "生": 6184,
      "產": 6185,
      "用": 6186,
      "田": 6187,
      "由": 6188,
      "甲": 6189,
      "申": 6190,
      "电": 6191,
      "男": 6192,
      "甸": 6193,
      "町": 6194,
      "画": 6195,
      "畀": 6196,
      "畅": 6197,
      "界": 6198,
      "畑": 6199,
      "留": 6200,
      "畢": 6201,
      "略": 6202,
      "番": 6203,
      "畫": 6204,
      "異": 6205,
      "當": 6206,
      "畿": 6207,
      "疆": 6208,
      "疏": 6209,
      "疑": 6210,
      "疗": 6211,
      "疫": 6212,
      "疲": 6213,
      "疾": 6214,
      "病": 6215,
      "症": 6216,
      "痛": 6217,
      "痞": 6218,
      "痴": 6219,
      "瘟": 6220,
      "瘦": 6221,
      "療": 6222,
      "癌": 6223,
      "癖": 6224,
      "癫": 6225,
      "発": 6226,
      "登": 6227,
      "發": 6228,
      "白": 6229,
      "百": 6230,
      "的": 6231,
      "皆": 6232,
      "皇": 6233,
      "皋": 6234,
      "皮": 6235,
      "盆": 6236,
      "盈": 6237,
      "益": 6238,
      "盐": 6239,
      "监": 6240,
      "盒": 6241,
      "盖": 6242,
      "盗": 6243,
      "盘": 6244,
      "盛": 6245,
      "盟": 6246,
      "盡": 6247,
      "監": 6248,
      "盤": 6249,
      "目": 6250,
      "盲": 6251,
      "直": 6252,
      "相": 6253,
      "省": 6254,
      "眉": 6255,
      "看": 6256,
      "県": 6257,
      "真": 6258,
      "眠": 6259,
      "眳": 6260,
      "眼": 6261,
      "眾": 6262,
      "着": 6263,
      "睇": 6264,
      "睛": 6265,
      "睡": 6266,
      "督": 6267,
      "睾": 6268,
      "瞒": 6269,
      "瞭": 6270,
      "瞾": 6271,
      "矣": 6272,
      "知": 6273,
      "矩": 6274,
      "短": 6275,
      "矮": 6276,
      "石": 6277,
      "矽": 6278,
      "矾": 6279,
      "矿": 6280,
      "码": 6281,
      "砂": 6282,
      "砍": 6283,
      "研": 6284,
      "砲": 6285,
      "破": 6286,
      "砾": 6287,
      "础": 6288,
      "硃": 6289,
      "硅": 6290,
      "硕": 6291,
      "硬": 6292,
      "确": 6293,
      "碍": 6294,
      "碎": 6295,
      "碑": 6296,
      "碚": 6297,
      "碟": 6298,
      "碧": 6299,
      "碰": 6300,
      "碳": 6301,
      "確": 6302,
      "碼": 6303,
      "磋": 6304,
      "磐": 6305,
      "磡": 6306,
      "磨": 6307,
      "磷": 6308,
      "礎": 6309,
      "礦": 6310,
      "示": 6311,
      "礼": 6312,
      "社": 6313,
      "祈": 6314,
      "祖": 6315,
      "祝": 6316,
      "神": 6317,
      "祥": 6318,
      "票": 6319,
      "祭": 6320,
      "禁": 6321,
      "禄": 6322,
      "禎": 6323,
      "福": 6324,
      "禮": 6325,
      "禹": 6326,
      "离": 6327,
      "禽": 6328,
      "秀": 6329,
      "私": 6330,
      "秉": 6331,
      "秋": 6332,
      "种": 6333,
      "科": 6334,
      "秒": 6335,
      "秘": 6336,
      "秦": 6337,
      "积": 6338,
      "称": 6339,
      "移": 6340,
      "稀": 6341,
      "稅": 6342,
      "程": 6343,
      "稍": 6344,
      "税": 6345,
      "種": 6346,
      "稱": 6347,
      "稲": 6348,
      "稳": 6349,
      "稽": 6350,
      "稿": 6351,
      "穀": 6352,
      "穆": 6353,
      "積": 6354,
      "穗": 6355,
      "穢": 6356,
      "穩": 6357,
      "穮": 6358,
      "穴": 6359,
      "究": 6360,
      "穷": 6361,
      "穹": 6362,
      "空": 6363,
      "穿": 6364,
      "突": 6365,
      "窃": 6366,
      "窗": 6367,
      "窝": 6368,
      "立": 6369,
      "竖": 6370,
      "站": 6371,
      "竞": 6372,
      "竟": 6373,
      "章": 6374,
      "童": 6375,
      "竭": 6376,
      "端": 6377,
      "競": 6378,
      "竹": 6379,
      "竺": 6380,
      "笑": 6381,
      "笔": 6382,
      "符": 6383,
      "第": 6384,
      "笼": 6385,
      "筆": 6386,
      "等": 6387,
      "筐": 6388,
      "筑": 6389,
      "答": 6390,
      "策": 6391,
      "筛": 6392,
      "筹": 6393,
      "签": 6394,
      "简": 6395,
      "箇": 6396,
      "箋": 6397,
      "算": 6398,
      "管": 6399,
      "箭": 6400,
      "箱": 6401,
      "節": 6402,
      "範": 6403,
      "篇": 6404,
      "篠": 6405,
      "篮": 6406,
      "簡": 6407,
      "簧": 6408,
      "簪": 6409,
      "簸": 6410,
      "簽": 6411,
      "簿": 6412,
      "籁": 6413,
      "籌": 6414,
      "籍": 6415,
      "籠": 6416,
      "籤": 6417,
      "米": 6418,
      "类": 6419,
      "粉": 6420,
      "粒": 6421,
      "粗": 6422,
      "粘": 6423,
      "粟": 6424,
      "粤": 6425,
      "粳": 6426,
      "粵": 6427,
      "粼": 6428,
      "精": 6429,
      "糊": 6430,
      "糖": 6431,
      "糟": 6432,
      "系": 6433,
      "紀": 6434,
      "約": 6435,
      "紅": 6436,
      "納": 6437,
      "紐": 6438,
      "紙": 6439,
      "級": 6440,
      "素": 6441,
      "索": 6442,
      "紧": 6443,
      "紫": 6444,
      "累": 6445,
      "細": 6446,
      "紹": 6447,
      "終": 6448,
      "組": 6449,
      "経": 6450,
      "結": 6451,
      "絕": 6452,
      "絡": 6453,
      "給": 6454,
      "統": 6455,
      "絲": 6456,
      "絵": 6457,
      "絶": 6458,
      "經": 6459,
      "継": 6460,
      "続": 6461,
      "綠": 6462,
      "維": 6463,
      "網": 6464,
      "緊": 6465,
      "総": 6466,
      "緒": 6467,
      "線": 6468,
      "締": 6469,
      "編": 6470,
      "緬": 6471,
      "練": 6472,
      "縈": 6473,
      "縛": 6474,
      "縮": 6475,
      "總": 6476,
      "繁": 6477,
      "織": 6478,
      "繪": 6479,
      "繫": 6480,
      "繼": 6481,
      "續": 6482,
      "纛": 6483,
      "纠": 6484,
      "红": 6485,
      "约": 6486,
      "级": 6487,
      "纪": 6488,
      "纯": 6489,
      "纲": 6490,
      "纳": 6491,
      "纵": 6492,
      "纷": 6493,
      "纸": 6494,
      "纹": 6495,
      "纽": 6496,
      "纾": 6497,
      "线": 6498,
      "练": 6499,
      "组": 6500,
      "细": 6501,
      "织": 6502,
      "终": 6503,
      "绍": 6504,
      "绎": 6505,
      "经": 6506,
      "绑": 6507,
      "结": 6508,
      "绕": 6509,
      "绘": 6510,
      "给": 6511,
      "络": 6512,
      "绝": 6513,
      "统": 6514,
      "绣": 6515,
      "绥": 6516,
      "继": 6517,
      "绫": 6518,
      "续": 6519,
      "绳": 6520,
      "维": 6521,
      "绵": 6522,
      "综": 6523,
      "绿": 6524,
      "缀": 6525,
      "缅": 6526,
      "缓": 6527,
      "编": 6528,
      "缘": 6529,
      "缝": 6530,
      "缩": 6531,
      "缪": 6532,
      "缶": 6533,
      "缸": 6534,
      "缺": 6535,
      "罂": 6536,
      "罐": 6537,
      "网": 6538,
      "罕": 6539,
      "罗": 6540,
      "罢": 6541,
      "罩": 6542,
      "罪": 6543,
      "置": 6544,
      "署": 6545,
      "罷": 6546,
      "羅": 6547,
      "羊": 6548,
      "羌": 6549,
      "美": 6550,
      "羔": 6551,
      "羣": 6552,
      "群": 6553,
      "義": 6554,
      "羽": 6555,
      "翅": 6556,
      "習": 6557,
      "翔": 6558,
      "翘": 6559,
      "翠": 6560,
      "翩": 6561,
      "翰": 6562,
      "翻": 6563,
      "耀": 6564,
      "老": 6565,
      "耂": 6566,
      "考": 6567,
      "者": 6568,
      "耆": 6569,
      "而": 6570,
      "耍": 6571,
      "耐": 6572,
      "耒": 6573,
      "耦": 6574,
      "耳": 6575,
      "耶": 6576,
      "耻": 6577,
      "聂": 6578,
      "聃": 6579,
      "聆": 6580,
      "聊": 6581,
      "职": 6582,
      "联": 6583,
      "聖": 6584,
      "聘": 6585,
      "聚": 6586,
      "聞": 6587,
      "聡": 6588,
      "聪": 6589,
      "聯": 6590,
      "聲": 6591,
      "聴": 6592,
      "職": 6593,
      "聽": 6594,
      "聾": 6595,
      "肃": 6596,
      "肆": 6597,
      "肇": 6598,
      "肉": 6599,
      "肌": 6600,
      "肖": 6601,
      "肝": 6602,
      "肠": 6603,
      "股": 6604,
      "肢": 6605,
      "肤": 6606,
      "肥": 6607,
      "肪": 6608,
      "肯": 6609,
      "育": 6610,
      "肺": 6611,
      "肾": 6612,
      "胀": 6613,
      "胁": 6614,
      "胃": 6615,
      "胆": 6616,
      "背": 6617,
      "胖": 6618,
      "胜": 6619,
      "胞": 6620,
      "胡": 6621,
      "胤": 6622,
      "胥": 6623,
      "胪": 6624,
      "胰": 6625,
      "胶": 6626,
      "能": 6627,
      "脂": 6628,
      "脅": 6629,
      "脆": 6630,
      "脈": 6631,
      "脊": 6632,
      "脏": 6633,
      "脑": 6634,
      "脚": 6635,
      "脱": 6636,
      "脸": 6637,
      "脹": 6638,
      "腊": 6639,
      "腌": 6640,
      "腐": 6641,
      "腔": 6642,
      "腕": 6643,
      "腥": 6644,
      "腦": 6645,
      "腰": 6646,
      "腳": 6647,
      "腸": 6648,
      "腹": 6649,
      "腾": 6650,
      "腿": 6651,
      "膀": 6652,
      "膊": 6653,
      "膏": 6654,
      "膜": 6655,
      "膝": 6656,
      "臉": 6657,
      "臘": 6658,
      "臟": 6659,
      "臣": 6660,
      "臧": 6661,
      "臨": 6662,
      "自": 6663,
      "至": 6664,
      "致": 6665,
      "臺": 6666,
      "臻": 6667,
      "與": 6668,
      "興": 6669,
      "舉": 6670,
      "舊": 6671,
      "舌": 6672,
      "舍": 6673,
      "舎": 6674,
      "舒": 6675,
      "舞": 6676,
      "舟": 6677,
      "航": 6678,
      "般": 6679,
      "舱": 6680,
      "船": 6681,
      "艇": 6682,
      "艘": 6683,
      "良": 6684,
      "色": 6685,
      "艸": 6686,
      "艺": 6687,
      "艽": 6688,
      "艾": 6689,
      "节": 6690,
      "芍": 6691,
      "芎": 6692,
      "芒": 6693,
      "芙": 6694,
      "芜": 6695,
      "芝": 6696,
      "芥": 6697,
      "芦": 6698,
      "芨": 6699,
      "芩": 6700,
      "芪": 6701,
      "芬": 6702,
      "芯": 6703,
      "花": 6704,
      "芷": 6705,
      "苁": 6706,
      "苇": 6707,
      "苈": 6708,
      "苍": 6709,
      "苏": 6710,
      "苑": 6711,
      "苓": 6712,
      "苗": 6713,
      "苛": 6714,
      "苡": 6715,
      "若": 6716,
      "苦": 6717,
      "英": 6718,
      "苹": 6719,
      "茂": 6720,
      "范": 6721,
      "茅": 6722,
      "茋": 6723,
      "茎": 6724,
      "茜": 6725,
      "茫": 6726,
      "茯": 6727,
      "茱": 6728,
      "茴": 6729,
      "茶": 6730,
      "茸": 6731,
      "茹": 6732,
      "荆": 6733,
      "草": 6734,
      "荐": 6735,
      "荒": 6736,
      "荔": 6737,
      "荚": 6738,
      "荟": 6739,
      "荣": 6740,
      "荥": 6741,
      "药": 6742,
      "荷": 6743,
      "荼": 6744,
      "莆": 6745,
      "莉": 6746,
      "莊": 6747,
      "莎": 6748,
      "莓": 6749,
      "莞": 6750,
      "莪": 6751,
      "莫": 6752,
      "莱": 6753,
      "莲": 6754,
      "获": 6755,
      "菊": 6756,
      "菌": 6757,
      "菏": 6758,
      "菖": 6759,
      "菜": 6760,
      "菟": 6761,
      "華": 6762,
      "菲": 6763,
      "萍": 6764,
      "萎": 6765,
      "营": 6766,
      "萨": 6767,
      "萬": 6768,
      "萱": 6769,
      "萸": 6770,
      "落": 6771,
      "葉": 6772,
      "著": 6773,
      "葛": 6774,
      "董": 6775,
      "葫": 6776,
      "葬": 6777,
      "葱": 6778,
      "葵": 6779,
      "葶": 6780,
      "蒂": 6781,
      "蒋": 6782,
      "蒐": 6783,
      "蒙": 6784,
      "蒜": 6785,
      "蒟": 6786,
      "蒡": 6787,
      "蒲": 6788,
      "蒻": 6789,
      "蒿": 6790,
      "蓁": 6791,
      "蓉": 6792,
      "蓖": 6793,
      "蓝": 6794,
      "蓟": 6795,
      "蓥": 6796,
      "蓮": 6797,
      "蔑": 6798,
      "蔘": 6799,
      "蔡": 6800,
      "蔬": 6801,
      "蔵": 6802,
      "蔹": 6803,
      "蔻": 6804,
      "蕊": 6805,
      "薄": 6806,
      "薇": 6807,
      "薏": 6808,
      "薦": 6809,
      "薩": 6810,
      "薪": 6811,
      "薬": 6812,
      "藁": 6813,
      "藍": 6814,
      "藏": 6815,
      "藝": 6816,
      "藤": 6817,
      "藥": 6818,
      "蘭": 6819,
      "虎": 6820,
      "虐": 6821,
      "虑": 6822,
      "處": 6823,
      "虛": 6824,
      "虞": 6825,
      "號": 6826,
      "虫": 6827,
      "虹": 6828,
      "虽": 6829,
      "虾": 6830,
      "虿": 6831,
      "蚀": 6832,
      "蚁": 6833,
      "蚂": 6834,
      "蚌": 6835,
      "蚕": 6836,
      "蚧": 6837,
      "蛋": 6838,
      "蛛": 6839,
      "蛟": 6840,
      "蛤": 6841,
      "蛮": 6842,
      "蛸": 6843,
      "蜀": 6844,
      "蜂": 6845,
      "蜜": 6846,
      "蜣": 6847,
      "蜿": 6848,
      "蝉": 6849,
      "蝎": 6850,
      "蝕": 6851,
      "蝶": 6852,
      "螂": 6853,
      "融": 6854,
      "螵": 6855,
      "螺": 6856,
      "蟐": 6857,
      "蟲": 6858,
      "蠢": 6859,
      "蠶": 6860,
      "血": 6861,
      "衅": 6862,
      "衆": 6863,
      "行": 6864,
      "衍": 6865,
      "術": 6866,
      "衔": 6867,
      "街": 6868,
      "衛": 6869,
      "衞": 6870,
      "衡": 6871,
      "衢": 6872,
      "衣": 6873,
      "补": 6874,
      "表": 6875,
      "衫": 6876,
      "衰": 6877,
      "袁": 6878,
      "袅": 6879,
      "袖": 6880,
      "袜": 6881,
      "被": 6882,
      "袭": 6883,
      "袮": 6884,
      "裁": 6885,
      "裂": 6886,
      "装": 6887,
      "裏": 6888,
      "裔": 6889,
      "補": 6890,
      "裟": 6891,
      "裡": 6892,
      "裤": 6893,
      "裳": 6894,
      "裸": 6895,
      "製": 6896,
      "複": 6897,
      "褦": 6898,
      "褲": 6899,
      "襄": 6900,
      "襖": 6901,
      "襲": 6902,
      "西": 6903,
      "要": 6904,
      "覆": 6905,
      "見": 6906,
      "規": 6907,
      "視": 6908,
      "覚": 6909,
      "覧": 6910,
      "観": 6911,
      "覺": 6912,
      "覽": 6913,
      "觀": 6914,
      "见": 6915,
      "观": 6916,
      "规": 6917,
      "视": 6918,
      "览": 6919,
      "觉": 6920,
      "角": 6921,
      "解": 6922,
      "触": 6923,
      "言": 6924,
      "訂": 6925,
      "計": 6926,
      "訊": 6927,
      "討": 6928,
      "訓": 6929,
      "記": 6930,
      "設": 6931,
      "許": 6932,
      "訳": 6933,
      "訴": 6934,
      "註": 6935,
      "証": 6936,
      "評": 6937,
      "詞": 6938,
      "詠": 6939,
      "詢": 6940,
      "試": 6941,
      "詩": 6942,
      "話": 6943,
      "該": 6944,
      "詳": 6945,
      "誉": 6946,
      "誌": 6947,
      "認": 6948,
      "誓": 6949,
      "誘": 6950,
      "語": 6951,
      "誠": 6952,
      "誤": 6953,
      "說": 6954,
      "説": 6955,
      "読": 6956,
      "誰": 6957,
      "課": 6958,
      "調": 6959,
      "談": 6960,
      "請": 6961,
      "論": 6962,
      "諮": 6963,
      "諸": 6964,
      "諺": 6965,
      "諾": 6966,
      "謄": 6967,
      "謙": 6968,
      "講": 6969,
      "謝": 6970,
      "證": 6971,
      "識": 6972,
      "譜": 6973,
      "警": 6974,
      "譯": 6975,
      "議": 6976,
      "譲": 6977,
      "護": 6978,
      "讀": 6979,
      "變": 6980,
      "讓": 6981,
      "讖": 6982,
      "计": 6983,
      "订": 6984,
      "认": 6985,
      "讨": 6986,
      "让": 6987,
      "训": 6988,
      "议": 6989,
      "讯": 6990,
      "记": 6991,
      "讲": 6992,
      "讷": 6993,
      "许": 6994,
      "论": 6995,
      "设": 6996,
      "访": 6997,
      "证": 6998,
      "诃": 6999,
      "评": 7000,
      "识": 7001,
      "诉": 7002,
      "诊": 7003,
      "词": 7004,
      "译": 7005,
      "试": 7006,
      "诗": 7007,
      "诚": 7008,
      "话": 7009,
      "诞": 7010,
      "询": 7011,
      "该": 7012,
      "详": 7013,
      "语": 7014,
      "误": 7015,
      "说": 7016,
      "请": 7017,
      "诸": 7018,
      "诺": 7019,
      "读": 7020,
      "课": 7021,
      "谁": 7022,
      "调": 7023,
      "谄": 7024,
      "谈": 7025,
      "谋": 7026,
      "谎": 7027,
      "谓": 7028,
      "谢": 7029,
      "谣": 7030,
      "谨": 7031,
      "谬": 7032,
      "谭": 7033,
      "谱": 7034,
      "谴": 7035,
      "谷": 7036,
      "豆": 7037,
      "豉": 7038,
      "豌": 7039,
      "豐": 7040,
      "象": 7041,
      "豪": 7042,
      "豬": 7043,
      "貌": 7044,
      "負": 7045,
      "財": 7046,
      "貢": 7047,
      "貨": 7048,
      "貫": 7049,
      "責": 7050,
      "貴": 7051,
      "買": 7052,
      "貸": 7053,
      "費": 7054,
      "貼": 7055,
      "貿": 7056,
      "賀": 7057,
      "資": 7058,
      "賓": 7059,
      "賜": 7060,
      "賞": 7061,
      "賦": 7062,
      "質": 7063,
      "賬": 7064,
      "購": 7065,
      "賽": 7066,
      "贈": 7067,
      "贊": 7068,
      "贓": 7069,
      "贛": 7070,
      "贝": 7071,
      "负": 7072,
      "贡": 7073,
      "财": 7074,
      "责": 7075,
      "贤": 7076,
      "败": 7077,
      "账": 7078,
      "货": 7079,
      "质": 7080,
      "贫": 7081,
      "购": 7082,
      "贱": 7083,
      "贴": 7084,
      "贵": 7085,
      "贷": 7086,
      "贸": 7087,
      "费": 7088,
      "贺": 7089,
      "资": 7090,
      "赌": 7091,
      "赏": 7092,
      "赐": 7093,
      "赔": 7094,
      "赖": 7095,
      "赚": 7096,
      "赛": 7097,
      "赞": 7098,
      "赠": 7099,
      "赢": 7100,
      "赣": 7101,
      "赤": 7102,
      "赦": 7103,
      "赫": 7104,
      "走": 7105,
      "赴": 7106,
      "赵": 7107,
      "起": 7108,
      "趁": 7109,
      "超": 7110,
      "越": 7111,
      "趋": 7112,
      "趕": 7113,
      "趙": 7114,
      "趣": 7115,
      "趨": 7116,
      "足": 7117,
      "跃": 7118,
      "跌": 7119,
      "跑": 7120,
      "距": 7121,
      "跟": 7122,
      "跡": 7123,
      "跨": 7124,
      "路": 7125,
      "跳": 7126,
      "践": 7127,
      "踊": 7128,
      "踏": 7129,
      "踢": 7130,
      "踪": 7131,
      "蹟": 7132,
      "蹤": 7133,
      "躁": 7134,
      "躍": 7135,
      "躡": 7136,
      "躪": 7137,
      "身": 7138,
      "車": 7139,
      "軍": 7140,
      "軟": 7141,
      "較": 7142,
      "載": 7143,
      "輔": 7144,
      "輕": 7145,
      "輩": 7146,
      "輪": 7147,
      "輯": 7148,
      "輸": 7149,
      "輿": 7150,
      "轅": 7151,
      "轉": 7152,
      "轍": 7153,
      "车": 7154,
      "轨": 7155,
      "转": 7156,
      "轮": 7157,
      "软": 7158,
      "轴": 7159,
      "轻": 7160,
      "载": 7161,
      "较": 7162,
      "辅": 7163,
      "辆": 7164,
      "辉": 7165,
      "辑": 7166,
      "输": 7167,
      "辖": 7168,
      "辛": 7169,
      "辜": 7170,
      "辞": 7171,
      "辟": 7172,
      "辣": 7173,
      "辦": 7174,
      "辨": 7175,
      "辭": 7176,
      "辱": 7177,
      "辷": 7178,
      "边": 7179,
      "込": 7180,
      "辽": 7181,
      "达": 7182,
      "迁": 7183,
      "迅": 7184,
      "过": 7185,
      "迈": 7186,
      "迎": 7187,
      "运": 7188,
      "近": 7189,
      "返": 7190,
      "还": 7191,
      "这": 7192,
      "进": 7193,
      "远": 7194,
      "违": 7195,
      "连": 7196,
      "迟": 7197,
      "迦": 7198,
      "迪": 7199,
      "迫": 7200,
      "述": 7201,
      "迷": 7202,
      "迹": 7203,
      "追": 7204,
      "退": 7205,
      "送": 7206,
      "适": 7207,
      "逃": 7208,
      "逆": 7209,
      "选": 7210,
      "逍": 7211,
      "透": 7212,
      "逐": 7213,
      "递": 7214,
      "途": 7215,
      "這": 7216,
      "通": 7217,
      "逛": 7218,
      "逝": 7219,
      "速": 7220,
      "造": 7221,
      "逢": 7222,
      "連": 7223,
      "逮": 7224,
      "週": 7225,
      "進": 7226,
      "逻": 7227,
      "逼": 7228,
      "遂": 7229,
      "遇": 7230,
      "遊": 7231,
      "運": 7232,
      "遍": 7233,
      "過": 7234,
      "道": 7235,
      "達": 7236,
      "違": 7237,
      "遗": 7238,
      "遙": 7239,
      "遜": 7240,
      "遞": 7241,
      "遥": 7242,
      "適": 7243,
      "遵": 7244,
      "遷": 7245,
      "選": 7246,
      "遺": 7247,
      "遼": 7248,
      "避": 7249,
      "邀": 7250,
      "還": 7251,
      "邊": 7252,
      "邏": 7253,
      "邑": 7254,
      "邓": 7255,
      "邛": 7256,
      "邡": 7257,
      "邢": 7258,
      "那": 7259,
      "邦": 7260,
      "邮": 7261,
      "邯": 7262,
      "邱": 7263,
      "邳": 7264,
      "邵": 7265,
      "邸": 7266,
      "邹": 7267,
      "邻": 7268,
      "郁": 7269,
      "郊": 7270,
      "郎": 7271,
      "郑": 7272,
      "郛": 7273,
      "郡": 7274,
      "部": 7275,
      "郭": 7276,
      "郴": 7277,
      "郵": 7278,
      "郷": 7279,
      "郸": 7280,
      "都": 7281,
      "鄂": 7282,
      "鄉": 7283,
      "鄒": 7284,
      "鄯": 7285,
      "鄺": 7286,
      "酉": 7287,
      "酌": 7288,
      "配": 7289,
      "酒": 7290,
      "酔": 7291,
      "酥": 7292,
      "酬": 7293,
      "酮": 7294,
      "酯": 7295,
      "酱": 7296,
      "酵": 7297,
      "酷": 7298,
      "酸": 7299,
      "酽": 7300,
      "酿": 7301,
      "醇": 7302,
      "醋": 7303,
      "醍": 7304,
      "醐": 7305,
      "醒": 7306,
      "醫": 7307,
      "醴": 7308,
      "釀": 7309,
      "采": 7310,
      "释": 7311,
      "里": 7312,
      "重": 7313,
      "野": 7314,
      "量": 7315,
      "釐": 7316,
      "金": 7317,
      "針": 7318,
      "鉗": 7319,
      "鉛": 7320,
      "鉢": 7321,
      "鉴": 7322,
      "銀": 7323,
      "銮": 7324,
      "銷": 7325,
      "鋽": 7326,
      "錄": 7327,
      "錚": 7328,
      "錦": 7329,
      "錯": 7330,
      "録": 7331,
      "錶": 7332,
      "鍋": 7333,
      "鍵": 7334,
      "鍾": 7335,
      "鎏": 7336,
      "鎖": 7337,
      "鎮": 7338,
      "鐘": 7339,
      "鐵": 7340,
      "鑾": 7341,
      "鑿": 7342,
      "针": 7343,
      "钉": 7344,
      "钓": 7345,
      "钙": 7346,
      "钟": 7347,
      "钢": 7348,
      "钥": 7349,
      "钦": 7350,
      "钩": 7351,
      "钮": 7352,
      "钰": 7353,
      "钱": 7354,
      "钾": 7355,
      "铁": 7356,
      "铅": 7357,
      "铜": 7358,
      "银": 7359,
      "链": 7360,
      "销": 7361,
      "锁": 7362,
      "锄": 7363,
      "锋": 7364,
      "锕": 7365,
      "错": 7366,
      "锚": 7367,
      "锡": 7368,
      "锦": 7369,
      "键": 7370,
      "锻": 7371,
      "镇": 7372,
      "镖": 7373,
      "镜": 7374,
      "長": 7375,
      "长": 7376,
      "門": 7377,
      "閉": 7378,
      "開": 7379,
      "閎": 7380,
      "間": 7381,
      "閠": 7382,
      "閡": 7383,
      "関": 7384,
      "閣": 7385,
      "閩": 7386,
      "閱": 7387,
      "閲": 7388,
      "關": 7389,
      "门": 7390,
      "闪": 7391,
      "闭": 7392,
      "问": 7393,
      "闯": 7394,
      "闲": 7395,
      "间": 7396,
      "闻": 7397,
      "闽": 7398,
      "阀": 7399,
      "阅": 7400,
      "阆": 7401,
      "阔": 7402,
      "阜": 7403,
      "队": 7404,
      "阪": 7405,
      "阱": 7406,
      "防": 7407,
      "阳": 7408,
      "阴": 7409,
      "阵": 7410,
      "阶": 7411,
      "阻": 7412,
      "阿": 7413,
      "陁": 7414,
      "附": 7415,
      "际": 7416,
      "陆": 7417,
      "陇": 7418,
      "陈": 7419,
      "降": 7420,
      "限": 7421,
      "陕": 7422,
      "院": 7423,
      "陣": 7424,
      "除": 7425,
      "陨": 7426,
      "险": 7427,
      "陪": 7428,
      "陰": 7429,
      "陳": 7430,
      "陵": 7431,
      "陶": 7432,
      "陷": 7433,
      "陽": 7434,
      "隆": 7435,
      "隊": 7436,
      "階": 7437,
      "随": 7438,
      "隐": 7439,
      "隔": 7440,
      "際": 7441,
      "障": 7442,
      "隠": 7443,
      "隧": 7444,
      "險": 7445,
      "隱": 7446,
      "隷": 7447,
      "隻": 7448,
      "难": 7449,
      "雀": 7450,
      "雁": 7451,
      "雄": 7452,
      "雅": 7453,
      "集": 7454,
      "雇": 7455,
      "雍": 7456,
      "雑": 7457,
      "雙": 7458,
      "雜": 7459,
      "離": 7460,
      "難": 7461,
      "雨": 7462,
      "雪": 7463,
      "雰": 7464,
      "雲": 7465,
      "零": 7466,
      "雷": 7467,
      "雹": 7468,
      "電": 7469,
      "雾": 7470,
      "需": 7471,
      "震": 7472,
      "霍": 7473,
      "霖": 7474,
      "霜": 7475,
      "霞": 7476,
      "露": 7477,
      "霽": 7478,
      "靈": 7479,
      "青": 7480,
      "靖": 7481,
      "静": 7482,
      "靜": 7483,
      "非": 7484,
      "靠": 7485,
      "靡": 7486,
      "面": 7487,
      "革": 7488,
      "靱": 7489,
      "鞋": 7490,
      "鞍": 7491,
      "韓": 7492,
      "韩": 7493,
      "韬": 7494,
      "音": 7495,
      "韶": 7496,
      "響": 7497,
      "頁": 7498,
      "項": 7499,
      "順": 7500,
      "須": 7501,
      "預": 7502,
      "頑": 7503,
      "領": 7504,
      "頭": 7505,
      "頸": 7506,
      "題": 7507,
      "額": 7508,
      "願": 7509,
      "類": 7510,
      "顧": 7511,
      "顯": 7512,
      "顱": 7513,
      "页": 7514,
      "顶": 7515,
      "项": 7516,
      "顺": 7517,
      "须": 7518,
      "顾": 7519,
      "预": 7520,
      "领": 7521,
      "颇": 7522,
      "频": 7523,
      "颖": 7524,
      "颗": 7525,
      "题": 7526,
      "颜": 7527,
      "额": 7528,
      "颤": 7529,
      "風": 7530,
      "风": 7531,
      "飛": 7532,
      "飞": 7533,
      "食": 7534,
      "飲": 7535,
      "飾": 7536,
      "餃": 7537,
      "養": 7538,
      "餐": 7539,
      "館": 7540,
      "饥": 7541,
      "饪": 7542,
      "饭": 7543,
      "饮": 7544,
      "饰": 7545,
      "饱": 7546,
      "饶": 7547,
      "饼": 7548,
      "饿": 7549,
      "馅": 7550,
      "馆": 7551,
      "首": 7552,
      "香": 7553,
      "馬": 7554,
      "馮": 7555,
      "駅": 7556,
      "駆": 7557,
      "駕": 7558,
      "駲": 7559,
      "験": 7560,
      "騰": 7561,
      "驗": 7562,
      "驟": 7563,
      "驪": 7564,
      "马": 7565,
      "驱": 7566,
      "驳": 7567,
      "驴": 7568,
      "驶": 7569,
      "驷": 7570,
      "驻": 7571,
      "驾": 7572,
      "骄": 7573,
      "骅": 7574,
      "骆": 7575,
      "验": 7576,
      "骑": 7577,
      "骚": 7578,
      "骡": 7579,
      "骤": 7580,
      "骨": 7581,
      "骸": 7582,
      "髆": 7583,
      "體": 7584,
      "高": 7585,
      "髙": 7586,
      "鬃": 7587,
      "鬆": 7588,
      "鬥": 7589,
      "鬨": 7590,
      "鬼": 7591,
      "魂": 7592,
      "魄": 7593,
      "魅": 7594,
      "魏": 7595,
      "魔": 7596,
      "魚": 7597,
      "魯": 7598,
      "鮑": 7599,
      "鮮": 7600,
      "鱸": 7601,
      "鱼": 7602,
      "鲁": 7603,
      "鲜": 7604,
      "鲥": 7605,
      "鲫": 7606,
      "鳖": 7607,
      "鳥": 7608,
      "鳳": 7609,
      "鴉": 7610,
      "鴨": 7611,
      "鴻": 7612,
      "鷗": 7613,
      "鷺": 7614,
      "鸟": 7615,
      "鸡": 7616,
      "鸣": 7617,
      "鸦": 7618,
      "鸭": 7619,
      "鸿": 7620,
      "鹤": 7621,
      "鹰": 7622,
      "鹿": 7623,
      "麗": 7624,
      "麟": 7625,
      "麥": 7626,
      "麦": 7627,
      "麸": 7628,
      "麻": 7629,
      "麼": 7630,
      "麽": 7631,
      "黃": 7632,
      "黄": 7633,
      "黎": 7634,
      "黑": 7635,
      "黔": 7636,
      "默": 7637,
      "黜": 7638,
      "點": 7639,
      "鼎": 7640,
      "鼓": 7641,
      "鼗": 7642,
      "鼠": 7643,
      "鼬": 7644,
      "鼯": 7645,
      "鼻": 7646,
      "鼽": 7647,
      "齊": 7648,
      "齐": 7649,
      "齿": 7650,
      "龄": 7651,
      "龈": 7652,
      "龍": 7653,
      "龙": 7654,
      "龜": 7655,
      "龟": 7656,
      "ꀤ": 7657,
      "ꆇ": 7658,
      "ꉙ": 7659,
      "ꓒ": 7660,
      "ꓸ": 7661,
      "ꓹ": 7662,
      "ꓼ": 7663,
      "ꓽ": 7664,
      "ꘌ": 7665,
      "ꙁ": 7666,
      "ꙃ": 7667,
      "ꙑ": 7668,
      "ꙗ": 7669,
      "Ꙭ": 7670,
      "Ꜥ": 7671,
      "ꜰ": 7672,
      "ꜱ": 7673,
      "꞊": 7674,
      "ꞌ": 7675,
      "Ɪ": 7676,
      "ꠀ": 7677,
      "ꠁ": 7678,
      "ꠃ": 7679,
      "ꠅ": 7680,
      "꠆": 7681,
      "ꠇ": 7682,
      "ꠉ": 7683,
      "ꠌ": 7684,
      "ꠍ": 7685,
      "ꠎ": 7686,
      "ꠐ": 7687,
      "ꠒ": 7688,
      "ꠖ": 7689,
      "ꠘ": 7690,
      "ꠙ": 7691,
      "ꠝ": 7692,
      "ꠞ": 7693,
      "ꠟ": 7694,
      "ꠡ": 7695,
      "ꠢ": 7696,
      "ꠣ": 7697,
      "ꠤ": 7698,
      "ꠥ": 7699,
      "ꠦ": 7700,
      "꠪": 7701,
      "ꦂ": 7702,
      "ꦃ": 7703,
      "ꦈ": 7704,
      "ꦏ": 7705,
      "ꦗ": 7706,
      "ꦟ": 7707,
      "ꦠ": 7708,
      "ꦢ": 7709,
      "ꦣ": 7710,
      "ꦤ": 7711,
      "ꦥ": 7712,
      "ꦧ": 7713,
      "ꦩ": 7714,
      "ꦪ": 7715,
      "ꦫ": 7716,
      "ꦮ": 7717,
      "ꦲ": 7718,
      "ꦴ": 7719,
      "ꦶ": 7720,
      "ꦺ": 7721,
      "꧀": 7722,
      "꧁": 7723,
      "꧂": 7724,
      "ꯀ": 7725,
      "ꯁ": 7726,
      "ꯂ": 7727,
      "ꯃ": 7728,
      "ꯄ": 7729,
      "ꯅ": 7730,
      "ꯆ": 7731,
      "ꯇ": 7732,
      "ꯈ": 7733,
      "ꯉ": 7734,
      "ꯊ": 7735,
      "ꯋ": 7736,
      "ꯌ": 7737,
      "ꯍ": 7738,
      "ꯎ": 7739,
      "ꯏ": 7740,
      "ꯐ": 7741,
      "ꯑ": 7742,
      "ꯒ": 7743,
      "ꯔ": 7744,
      "ꯕ": 7745,
      "ꯖ": 7746,
      "ꯗ": 7747,
      "ꯚ": 7748,
      "ꯛ": 7749,
      "ꯜ": 7750,
      "ꯝ": 7751,
      "ꯞ": 7752,
      "ꯟ": 7753,
      "ꯠ": 7754,
      "ꯡ": 7755,
      "ꯢ": 7756,
      "ꯣ": 7757,
      "ꯤ": 7758,
      "ꯥ": 7759,
      "ꯦ": 7760,
      "ꯧ": 7761,
      "ꯨ": 7762,
      "ꯩ": 7763,
      "ꯪ": 7764,
      "꯫": 7765,
      "꯭": 7766,
      "가": 7767,
      "각": 7768,
      "간": 7769,
      "갈": 7770,
      "감": 7771,
      "갑": 7772,
      "값": 7773,
      "갔": 7774,
      "강": 7775,
      "같": 7776,
      "개": 7777,
      "갭": 7778,
      "걀": 7779,
      "거": 7780,
      "걱": 7781,
      "건": 7782,
      "걷": 7783,
      "걸": 7784,
      "검": 7785,
      "겁": 7786,
      "것": 7787,
      "게": 7788,
      "겠": 7789,
      "겨": 7790,
      "격": 7791,
      "견": 7792,
      "결": 7793,
      "겸": 7794,
      "경": 7795,
      "계": 7796,
      "고": 7797,
      "곡": 7798,
      "골": 7799,
      "곱": 7800,
      "곳": 7801,
      "공": 7802,
      "과": 7803,
      "관": 7804,
      "괌": 7805,
      "광": 7806,
      "교": 7807,
      "구": 7808,
      "국": 7809,
      "군": 7810,
      "굴": 7811,
      "굿": 7812,
      "궁": 7813,
      "권": 7814,
      "궤": 7815,
      "귓": 7816,
      "규": 7817,
      "균": 7818,
      "그": 7819,
      "극": 7820,
      "근": 7821,
      "글": 7822,
      "금": 7823,
      "급": 7824,
      "기": 7825,
      "긴": 7826,
      "길": 7827,
      "김": 7828,
      "깃": 7829,
      "까": 7830,
      "깐": 7831,
      "깔": 7832,
      "깨": 7833,
      "꺾": 7834,
      "께": 7835,
      "껴": 7836,
      "꼬": 7837,
      "꽃": 7838,
      "꾸": 7839,
      "꿀": 7840,
      "꿈": 7841,
      "꿔": 7842,
      "끌": 7843,
      "끓": 7844,
      "끔": 7845,
      "끗": 7846,
      "끝": 7847,
      "끼": 7848,
      "낌": 7849,
      "낍": 7850,
      "나": 7851,
      "낙": 7852,
      "난": 7853,
      "날": 7854,
      "남": 7855,
      "납": 7856,
      "났": 7857,
      "낱": 7858,
      "내": 7859,
      "낸": 7860,
      "냅": 7861,
      "냈": 7862,
      "냉": 7863,
      "냐": 7864,
      "냑": 7865,
      "냠": 7866,
      "냥": 7867,
      "너": 7868,
      "널": 7869,
      "넘": 7870,
      "넣": 7871,
      "네": 7872,
      "넷": 7873,
      "녀": 7874,
      "녁": 7875,
      "년": 7876,
      "념": 7877,
      "녕": 7878,
      "노": 7879,
      "놀": 7880,
      "높": 7881,
      "놓": 7882,
      "뇨": 7883,
      "뇹": 7884,
      "누": 7885,
      "눈": 7886,
      "뉴": 7887,
      "느": 7888,
      "는": 7889,
      "늘": 7890,
      "늙": 7891,
      "능": 7892,
      "늦": 7893,
      "니": 7894,
      "닉": 7895,
      "닌": 7896,
      "님": 7897,
      "닝": 7898,
      "다": 7899,
      "닥": 7900,
      "단": 7901,
      "닫": 7902,
      "달": 7903,
      "닭": 7904,
      "닮": 7905,
      "담": 7906,
      "답": 7907,
      "당": 7908,
      "대": 7909,
      "댑": 7910,
      "더": 7911,
      "덕": 7912,
      "던": 7913,
      "덜": 7914,
      "덟": 7915,
      "덥": 7916,
      "덧": 7917,
      "덩": 7918,
      "덮": 7919,
      "데": 7920,
      "덴": 7921,
      "델": 7922,
      "뎀": 7923,
      "도": 7924,
      "독": 7925,
      "돈": 7926,
      "돋": 7927,
      "돌": 7928,
      "동": 7929,
      "돼": 7930,
      "되": 7931,
      "된": 7932,
      "될": 7933,
      "됩": 7934,
      "두": 7935,
      "둘": 7936,
      "둥": 7937,
      "뒤": 7938,
      "듈": 7939,
      "드": 7940,
      "득": 7941,
      "든": 7942,
      "듣": 7943,
      "들": 7944,
      "듬": 7945,
      "듯": 7946,
      "등": 7947,
      "디": 7948,
      "딜": 7949,
      "딥": 7950,
      "딩": 7951,
      "따": 7952,
      "딱": 7953,
      "딸": 7954,
      "땅": 7955,
      "때": 7956,
      "땐": 7957,
      "떠": 7958,
      "떡": 7959,
      "떤": 7960,
      "떨": 7961,
      "떻": 7962,
      "또": 7963,
      "똑": 7964,
      "뚝": 7965,
      "뚱": 7966,
      "뛰": 7967,
      "뜨": 7968,
      "뜻": 7969,
      "띠": 7970,
      "라": 7971,
      "락": 7972,
      "란": 7973,
      "랄": 7974,
      "람": 7975,
      "랍": 7976,
      "랐": 7977,
      "랑": 7978,
      "래": 7979,
      "랙": 7980,
      "랜": 7981,
      "램": 7982,
      "랩": 7983,
      "랫": 7984,
      "량": 7985,
      "러": 7986,
      "럭": 7987,
      "런": 7988,
      "럴": 7989,
      "럼": 7990,
      "럽": 7991,
      "렀": 7992,
      "렁": 7993,
      "렇": 7994,
      "레": 7995,
      "렉": 7996,
      "렌": 7997,
      "렘": 7998,
      "렙": 7999,
      "렝": 8000,
      "려": 8001,
      "력": 8002,
      "련": 8003,
      "렬": 8004,
      "렵": 8005,
      "렸": 8006,
      "령": 8007,
      "례": 8008,
      "로": 8009,
      "록": 8010,
      "론": 8011,
      "롤": 8012,
      "롭": 8013,
      "롯": 8014,
      "료": 8015,
      "루": 8016,
      "룩": 8017,
      "룬": 8018,
      "룹": 8019,
      "뤼": 8020,
      "류": 8021,
      "륭": 8022,
      "르": 8023,
      "른": 8024,
      "를": 8025,
      "름": 8026,
      "릇": 8027,
      "리": 8028,
      "릭": 8029,
      "린": 8030,
      "림": 8031,
      "립": 8032,
      "릿": 8033,
      "링": 8034,
      "마": 8035,
      "막": 8036,
      "만": 8037,
      "많": 8038,
      "말": 8039,
      "맛": 8040,
      "망": 8041,
      "맞": 8042,
      "매": 8043,
      "맥": 8044,
      "맨": 8045,
      "맹": 8046,
      "머": 8047,
      "먹": 8048,
      "먼": 8049,
      "멋": 8050,
      "멍": 8051,
      "메": 8052,
      "멘": 8053,
      "멤": 8054,
      "며": 8055,
      "면": 8056,
      "멸": 8057,
      "명": 8058,
      "몇": 8059,
      "모": 8060,
      "목": 8061,
      "몭": 8062,
      "몰": 8063,
      "몸": 8064,
      "몹": 8065,
      "못": 8066,
      "무": 8067,
      "문": 8068,
      "묻": 8069,
      "물": 8070,
      "뭉": 8071,
      "뭐": 8072,
      "뮤": 8073,
      "믈": 8074,
      "미": 8075,
      "믹": 8076,
      "민": 8077,
      "밀": 8078,
      "밍": 8079,
      "및": 8080,
      "바": 8081,
      "박": 8082,
      "밖": 8083,
      "반": 8084,
      "받": 8085,
      "발": 8086,
      "밝": 8087,
      "밤": 8088,
      "밥": 8089,
      "방": 8090,
      "배": 8091,
      "백": 8092,
      "밸": 8093,
      "뱅": 8094,
      "버": 8095,
      "번": 8096,
      "벌": 8097,
      "범": 8098,
      "법": 8099,
      "벙": 8100,
      "베": 8101,
      "벡": 8102,
      "벤": 8103,
      "벨": 8104,
      "벳": 8105,
      "벵": 8106,
      "벼": 8107,
      "벽": 8108,
      "변": 8109,
      "별": 8110,
      "병": 8111,
      "볕": 8112,
      "보": 8113,
      "복": 8114,
      "볶": 8115,
      "본": 8116,
      "볼": 8117,
      "봄": 8118,
      "봇": 8119,
      "봉": 8120,
      "부": 8121,
      "북": 8122,
      "분": 8123,
      "불": 8124,
      "붙": 8125,
      "뷔": 8126,
      "뷰": 8127,
      "브": 8128,
      "븐": 8129,
      "블": 8130,
      "비": 8131,
      "빅": 8132,
      "빈": 8133,
      "빌": 8134,
      "빚": 8135,
      "빛": 8136,
      "빠": 8137,
      "빵": 8138,
      "빼": 8139,
      "뺀": 8140,
      "뽐": 8141,
      "뿌": 8142,
      "뿍": 8143,
      "뿐": 8144,
      "쁘": 8145,
      "쁨": 8146,
      "삐": 8147,
      "사": 8148,
      "삭": 8149,
      "산": 8150,
      "살": 8151,
      "삶": 8152,
      "삼": 8153,
      "상": 8154,
      "새": 8155,
      "색": 8156,
      "샌": 8157,
      "샐": 8158,
      "샘": 8159,
      "생": 8160,
      "샤": 8161,
      "샵": 8162,
      "샷": 8163,
      "서": 8164,
      "석": 8165,
      "선": 8166,
      "설": 8167,
      "섬": 8168,
      "섯": 8169,
      "성": 8170,
      "세": 8171,
      "센": 8172,
      "셀": 8173,
      "셋": 8174,
      "셔": 8175,
      "션": 8176,
      "셜": 8177,
      "셰": 8178,
      "소": 8179,
      "속": 8180,
      "손": 8181,
      "솔": 8182,
      "솟": 8183,
      "송": 8184,
      "솥": 8185,
      "쇠": 8186,
      "쇼": 8187,
      "숍": 8188,
      "수": 8189,
      "숙": 8190,
      "순": 8191,
      "술": 8192,
      "숨": 8193,
      "숭": 8194,
      "쉬": 8195,
      "쉰": 8196,
      "쉽": 8197,
      "슈": 8198,
      "스": 8199,
      "슬": 8200,
      "습": 8201,
      "슷": 8202,
      "승": 8203,
      "시": 8204,
      "식": 8205,
      "신": 8206,
      "실": 8207,
      "심": 8208,
      "십": 8209,
      "싱": 8210,
      "싶": 8211,
      "싼": 8212,
      "쌍": 8213,
      "써": 8214,
      "쎈": 8215,
      "쏙": 8216,
      "쐍": 8217,
      "쑥": 8218,
      "쓰": 8219,
      "쓴": 8220,
      "쓸": 8221,
      "씨": 8222,
      "씩": 8223,
      "씬": 8224,
      "씻": 8225,
      "아": 8226,
      "악": 8227,
      "안": 8228,
      "앉": 8229,
      "않": 8230,
      "알": 8231,
      "암": 8232,
      "앗": 8233,
      "았": 8234,
      "앞": 8235,
      "애": 8236,
      "액": 8237,
      "앤": 8238,
      "앨": 8239,
      "앱": 8240,
      "앳": 8241,
      "야": 8242,
      "약": 8243,
      "얄": 8244,
      "양": 8245,
      "얕": 8246,
      "어": 8247,
      "억": 8248,
      "언": 8249,
      "얻": 8250,
      "얼": 8251,
      "엄": 8252,
      "업": 8253,
      "없": 8254,
      "엇": 8255,
      "었": 8256,
      "에": 8257,
      "엑": 8258,
      "엔": 8259,
      "엘": 8260,
      "엠": 8261,
      "여": 8262,
      "역": 8263,
      "연": 8264,
      "열": 8265,
      "염": 8266,
      "엽": 8267,
      "였": 8268,
      "영": 8269,
      "예": 8270,
      "옐": 8271,
      "오": 8272,
      "옥": 8273,
      "온": 8274,
      "올": 8275,
      "옷": 8276,
      "옹": 8277,
      "와": 8278,
      "완": 8279,
      "왔": 8280,
      "왜": 8281,
      "외": 8282,
      "요": 8283,
      "욕": 8284,
      "용": 8285,
      "우": 8286,
      "욱": 8287,
      "운": 8288,
      "울": 8289,
      "움": 8290,
      "웃": 8291,
      "웅": 8292,
      "워": 8293,
      "원": 8294,
      "월": 8295,
      "웠": 8296,
      "웧": 8297,
      "웨": 8298,
      "웹": 8299,
      "위": 8300,
      "윅": 8301,
      "윈": 8302,
      "윌": 8303,
      "윗": 8304,
      "유": 8305,
      "육": 8306,
      "윤": 8307,
      "으": 8308,
      "은": 8309,
      "을": 8310,
      "음": 8311,
      "읍": 8312,
      "응": 8313,
      "의": 8314,
      "이": 8315,
      "익": 8316,
      "인": 8317,
      "일": 8318,
      "읽": 8319,
      "잃": 8320,
      "임": 8321,
      "입": 8322,
      "잇": 8323,
      "있": 8324,
      "잊": 8325,
      "잎": 8326,
      "자": 8327,
      "작": 8328,
      "잔": 8329,
      "잘": 8330,
      "잠": 8331,
      "잡": 8332,
      "장": 8333,
      "재": 8334,
      "쟁": 8335,
      "저": 8336,
      "적": 8337,
      "전": 8338,
      "절": 8339,
      "젊": 8340,
      "점": 8341,
      "접": 8342,
      "정": 8343,
      "제": 8344,
      "젝": 8345,
      "젠": 8346,
      "져": 8347,
      "졌": 8348,
      "조": 8349,
      "족": 8350,
      "존": 8351,
      "종": 8352,
      "좋": 8353,
      "죠": 8354,
      "주": 8355,
      "준": 8356,
      "줄": 8357,
      "줍": 8358,
      "중": 8359,
      "쥬": 8360,
      "즈": 8361,
      "즌": 8362,
      "즐": 8363,
      "즘": 8364,
      "증": 8365,
      "즤": 8366,
      "지": 8367,
      "직": 8368,
      "진": 8369,
      "질": 8370,
      "짐": 8371,
      "집": 8372,
      "징": 8373,
      "짜": 8374,
      "짝": 8375,
      "째": 8376,
      "쨌": 8377,
      "쪽": 8378,
      "쯤": 8379,
      "찍": 8380,
      "찢": 8381,
      "차": 8382,
      "착": 8383,
      "찬": 8384,
      "참": 8385,
      "창": 8386,
      "찾": 8387,
      "채": 8388,
      "책": 8389,
      "챌": 8390,
      "챗": 8391,
      "챙": 8392,
      "처": 8393,
      "척": 8394,
      "천": 8395,
      "철": 8396,
      "첫": 8397,
      "청": 8398,
      "체": 8399,
      "쳅": 8400,
      "쳐": 8401,
      "쳤": 8402,
      "초": 8403,
      "총": 8404,
      "촬": 8405,
      "최": 8406,
      "추": 8407,
      "축": 8408,
      "춘": 8409,
      "출": 8410,
      "춤": 8411,
      "충": 8412,
      "취": 8413,
      "츠": 8414,
      "층": 8415,
      "치": 8416,
      "칙": 8417,
      "친": 8418,
      "칠": 8419,
      "침": 8420,
      "칩": 8421,
      "카": 8422,
      "칸": 8423,
      "칼": 8424,
      "캐": 8425,
      "캠": 8426,
      "커": 8427,
      "컨": 8428,
      "컬": 8429,
      "컴": 8430,
      "컷": 8431,
      "케": 8432,
      "켄": 8433,
      "켓": 8434,
      "켜": 8435,
      "켰": 8436,
      "코": 8437,
      "콘": 8438,
      "콜": 8439,
      "콤": 8440,
      "콩": 8441,
      "콰": 8442,
      "쾅": 8443,
      "쾌": 8444,
      "쿄": 8445,
      "쿠": 8446,
      "쿵": 8447,
      "퀘": 8448,
      "퀴": 8449,
      "큐": 8450,
      "크": 8451,
      "큰": 8452,
      "클": 8453,
      "큼": 8454,
      "키": 8455,
      "킹": 8456,
      "타": 8457,
      "탁": 8458,
      "탄": 8459,
      "탈": 8460,
      "탐": 8461,
      "탑": 8462,
      "탕": 8463,
      "태": 8464,
      "택": 8465,
      "터": 8466,
      "턱": 8467,
      "턴": 8468,
      "털": 8469,
      "테": 8470,
      "텐": 8471,
      "텔": 8472,
      "템": 8473,
      "텝": 8474,
      "토": 8475,
      "톡": 8476,
      "톤": 8477,
      "톰": 8478,
      "톱": 8479,
      "통": 8480,
      "투": 8481,
      "튀": 8482,
      "튜": 8483,
      "트": 8484,
      "특": 8485,
      "튼": 8486,
      "틀": 8487,
      "틈": 8488,
      "티": 8489,
      "틱": 8490,
      "팀": 8491,
      "팅": 8492,
      "파": 8493,
      "판": 8494,
      "팔": 8495,
      "팜": 8496,
      "팝": 8497,
      "패": 8498,
      "팩": 8499,
      "팬": 8500,
      "팽": 8501,
      "퍼": 8502,
      "펄": 8503,
      "페": 8504,
      "펫": 8505,
      "편": 8506,
      "펼": 8507,
      "평": 8508,
      "폐": 8509,
      "포": 8510,
      "폭": 8511,
      "폰": 8512,
      "폴": 8513,
      "폼": 8514,
      "푀": 8515,
      "표": 8516,
      "푸": 8517,
      "푹": 8518,
      "풀": 8519,
      "품": 8520,
      "풍": 8521,
      "퓨": 8522,
      "퓸": 8523,
      "프": 8524,
      "픈": 8525,
      "플": 8526,
      "피": 8527,
      "픽": 8528,
      "핀": 8529,
      "필": 8530,
      "핑": 8531,
      "하": 8532,
      "학": 8533,
      "한": 8534,
      "할": 8535,
      "함": 8536,
      "합": 8537,
      "핫": 8538,
      "항": 8539,
      "해": 8540,
      "핸": 8541,
      "핼": 8542,
      "햇": 8543,
      "했": 8544,
      "행": 8545,
      "향": 8546,
      "허": 8547,
      "헌": 8548,
      "험": 8549,
      "헛": 8550,
      "헤": 8551,
      "혁": 8552,
      "현": 8553,
      "혐": 8554,
      "형": 8555,
      "혜": 8556,
      "호": 8557,
      "혹": 8558,
      "혼": 8559,
      "홀": 8560,
      "홈": 8561,
      "홉": 8562,
      "홍": 8563,
      "화": 8564,
      "확": 8565,
      "환": 8566,
      "활": 8567,
      "황": 8568,
      "회": 8569,
      "획": 8570,
      "후": 8571,
      "훈": 8572,
      "훌": 8573,
      "훨": 8574,
      "휘": 8575,
      "휴": 8576,
      "흐": 8577,
      "흔": 8578,
      "희": 8579,
      "흰": 8580,
      "히": 8581,
      "힐": 8582,
      "힘": 8583,
      "ﬀ": 8584,
      "ﬁ": 8585,
      "ﬂ": 8586,
      "ﬃ": 8587,
      "ﬄ": 8588,
      "ﬅ": 8589,
      "ﬆ": 8590,
      "ﬓ": 8591,
      "ﬔ": 8592,
      "ﬕ": 8593,
      "ﬖ": 8594,
      "ﬗ": 8595,
      "ﭘ": 8596,
      "ﭙ": 8597,
      "ﭬ": 8598,
      "ﭭ": 8599,
      "ﭼ": 8600,
      "ﮏ": 8601,
      "ﮐ": 8602,
      "ﮑ": 8603,
      "ﮓ": 8604,
      "ﮔ": 8605,
      "ﮕ": 8606,
      "ﮫ": 8607,
      "ﮭ": 8608,
      "ﯽ": 8609,
      "ﯾ": 8610,
      "ﯿ": 8611,
      "ﰲ": 8612,
      "ﱄ": 8613,
      "ﱟ": 8614,
      "ﱠ": 8615,
      "ﱡ": 8616,
      "ﱢ": 8617,
      "ﲏ": 8618,
      "ﲤ": 8619,
      "ﳌ": 8620,
      "ﷲ": 8621,
      "ﷺ": 8622,
      "︀": 8623,
      "︁": 8624,
      "︂": 8625,
      "︃": 8626,
      "︎": 8627,
      "️": 8628,
      "︠": 8629,
      "︡": 8630,
      "﹒": 8631,
      "﹠": 8632,
      "ﹾ": 8633,
      "ﺄ": 8634,
      "ﺅ": 8635,
      "ﺆ": 8636,
      "ﺈ": 8637,
      "ﺊ": 8638,
      "ﺋ": 8639,
      "ﺍ": 8640,
      "ﺎ": 8641,
      "ﺏ": 8642,
      "ﺐ": 8643,
      "ﺑ": 8644,
      "ﺒ": 8645,
      "ﺔ": 8646,
      "ﺕ": 8647,
      "ﺖ": 8648,
      "ﺗ": 8649,
      "ﺘ": 8650,
      "ﺙ": 8651,
      "ﺚ": 8652,
      "ﺛ": 8653,
      "ﺜ": 8654,
      "ﺞ": 8655,
      "ﺟ": 8656,
      "ﺠ": 8657,
      "ﺢ": 8658,
      "ﺣ": 8659,
      "ﺤ": 8660,
      "ﺦ": 8661,
      "ﺧ": 8662,
      "ﺨ": 8663,
      "ﺩ": 8664,
      "ﺪ": 8665,
      "ﺬ": 8666,
      "ﺭ": 8667,
      "ﺮ": 8668,
      "ﺯ": 8669,
      "ﺰ": 8670,
      "ﺱ": 8671,
      "ﺲ": 8672,
      "ﺳ": 8673,
      "ﺴ": 8674,
      "ﺶ": 8675,
      "ﺷ": 8676,
      "ﺸ": 8677,
      "ﺺ": 8678,
      "ﺻ": 8679,
      "ﺼ": 8680,
      "ﺾ": 8681,
      "ﺿ": 8682,
      "ﻀ": 8683,
      "ﻂ": 8684,
      "ﻃ": 8685,
      "ﻄ": 8686,
      "ﻈ": 8687,
      "ﻊ": 8688,
      "ﻋ": 8689,
      "ﻌ": 8690,
      "ﻎ": 8691,
      "ﻏ": 8692,
      "ﻐ": 8693,
      "ﻒ": 8694,
      "ﻓ": 8695,
      "ﻔ": 8696,
      "ﻖ": 8697,
      "ﻗ": 8698,
      "ﻘ": 8699,
      "ﻚ": 8700,
      "ﻛ": 8701,
      "ﻜ": 8702,
      "ﻝ": 8703,
      "ﻞ": 8704,
      "ﻟ": 8705,
      "ﻠ": 8706,
      "ﻡ": 8707,
      "ﻢ": 8708,
      "ﻣ": 8709,
      "ﻤ": 8710,
      "ﻥ": 8711,
      "ﻦ": 8712,
      "ﻧ": 8713,
      "ﻨ": 8714,
      "ﻪ": 8715,
      "ﻫ": 8716,
      "ﻬ": 8717,
      "ﻭ": 8718,
      "ﻮ": 8719,
      "ﻰ": 8720,
      "ﻱ": 8721,
      "ﻲ": 8722,
      "ﻳ": 8723,
      "ﻴ": 8724,
      "ﻵ": 8725,
      "ﻷ": 8726,
      "ﻸ": 8727,
      "ﻹ": 8728,
      "ﻻ": 8729,
      "ﻼ": 8730,
      "！": 8731,
      "＂": 8732,
      "＃": 8733,
      "％": 8734,
      "＆": 8735,
      "（": 8736,
      "）": 8737,
      "＊": 8738,
      "＋": 8739,
      "，": 8740,
      "－": 8741,
      "．": 8742,
      "／": 8743,
      "０": 8744,
      "１": 8745,
      "２": 8746,
      "３": 8747,
      "４": 8748,
      "５": 8749,
      "６": 8750,
      "７": 8751,
      "８": 8752,
      "９": 8753,
      "：": 8754,
      "；": 8755,
      "＜": 8756,
      "＝": 8757,
      "＞": 8758,
      "？": 8759,
      "Ａ": 8760,
      "Ｂ": 8761,
      "Ｃ": 8762,
      "Ｄ": 8763,
      "Ｅ": 8764,
      "Ｆ": 8765,
      "Ｇ": 8766,
      "Ｉ": 8767,
      "Ｊ": 8768,
      "Ｋ": 8769,
      "Ｌ": 8770,
      "Ｍ": 8771,
      "Ｎ": 8772,
      "Ｏ": 8773,
      "Ｐ": 8774,
      "Ｒ": 8775,
      "Ｓ": 8776,
      "Ｔ": 8777,
      "Ｕ": 8778,
      "Ｖ": 8779,
      "Ｗ": 8780,
      "Ｙ": 8781,
      "［": 8782,
      "＼": 8783,
      "］": 8784,
      "＾": 8785,
      "＿": 8786,
      "｀": 8787,
      "ａ": 8788,
      "ｂ": 8789,
      "ｃ": 8790,
      "ｄ": 8791,
      "ｅ": 8792,
      "ｆ": 8793,
      "ｇ": 8794,
      "ｈ": 8795,
      "ｉ": 8796,
      "ｊ": 8797,
      "ｋ": 8798,
      "ｌ": 8799,
      "ｍ": 8800,
      "ｎ": 8801,
      "ｏ": 8802,
      "ｐ": 8803,
      "ｒ": 8804,
      "ｓ": 8805,
      "ｔ": 8806,
      "ｕ": 8807,
      "ｖ": 8808,
      "ｗ": 8809,
      "ｘ": 8810,
      "ｙ": 8811,
      "ｚ": 8812,
      "｜": 8813,
      "～": 8814,
      "｡": 8815,
      "･": 8816,
      "ｭ": 8817,
      "ｯ": 8818,
      "ｰ": 8819,
      "ｸ": 8820,
      "ｺ": 8821,
      "ｽ": 8822,
      "ﾀ": 8823,
      "ﾁ": 8824,
      "ﾄ": 8825,
      "ﾈ": 8826,
      "ﾉ": 8827,
      "ﾌ": 8828,
      "ﾐ": 8829,
      "ﾛ": 8830,
      "ﾜ": 8831,
      "ﾞ": 8832,
      "ﾟ": 8833,
      "￠": 8834,
      "￡": 8835,
      "￢": 8836,
      "￣": 8837,
      "￥": 8838,
      "￭": 8839,
      "￼": 8840,
      "�": 8841,
      "𐌰": 8842,
      "𐌱": 8843,
      "𐌲": 8844,
      "𐌳": 8845,
      "𐌴": 8846,
      "𐌹": 8847,
      "𐌺": 8848,
      "𐌻": 8849,
      "𐌾": 8850,
      "𐌿": 8851,
      "𐍀": 8852,
      "𐍂": 8853,
      "𐍃": 8854,
      "𐍄": 8855,
      "𐍅": 8856,
      "𐍆": 8857,
      "𐍉": 8858,
      "𐰇": 8859,
      "𐰚": 8860,
      "𐰤": 8861,
      "𐱅": 8862,
      "𑂉": 8863,
      "𑂍": 8864,
      "𑂏": 8865,
      "𑂙": 8866,
      "𑂞": 8867,
      "𑂣": 8868,
      "𑂧": 8869,
      "𑂨": 8870,
      "𑂫": 8871,
      "𑂬": 8872,
      "𑂰": 8873,
      "𑂱": 8874,
      "𑂲": 8875,
      "𑂳": 8876,
      "𑂷": 8877,
      "𑂹": 8878,
      "𑢼": 8879,
      "𑢾": 8880,
      "𑣁": 8881,
      "𑣃": 8882,
      "𑣊": 8883,
      "𑣌": 8884,
      "𑣖": 8885,
      "𓆸": 8886,
      "𓇢": 8887,
      "𓇼": 8888,
      "𖦹": 8889,
      "𝄪": 8890,
      "𝄫": 8891,
      "𝄲": 8892,
      "𝄳": 8893,
      "𝄻": 8894,
      "𝄼": 8895,
      "𝄽": 8896,
      "𝄾": 8897,
      "𝄿": 8898,
      "𝅗": 8899,
      "𝅘": 8900,
      "𝅝": 8901,
      "𝅥": 8902,
      "𝅮": 8903,
      "𝅯": 8904,
      "𝌆": 8905,
      "𝐀": 8906,
      "𝐁": 8907,
      "𝐂": 8908,
      "𝐃": 8909,
      "𝐄": 8910,
      "𝐅": 8911,
      "𝐆": 8912,
      "𝐇": 8913,
      "𝐈": 8914,
      "𝐊": 8915,
      "𝐋": 8916,
      "𝐌": 8917,
      "𝐍": 8918,
      "𝐏": 8919,
      "𝐑": 8920,
      "𝐒": 8921,
      "𝐓": 8922,
      "𝐔": 8923,
      "𝐕": 8924,
      "𝐖": 8925,
      "𝐘": 8926,
      "𝐙": 8927,
      "𝐚": 8928,
      "𝐛": 8929,
      "𝐜": 8930,
      "𝐝": 8931,
      "𝐞": 8932,
      "𝐟": 8933,
      "𝐠": 8934,
      "𝐡": 8935,
      "𝐢": 8936,
      "𝐤": 8937,
      "𝐥": 8938,
      "𝐦": 8939,
      "𝐧": 8940,
      "𝐨": 8941,
      "𝐩": 8942,
      "𝐪": 8943,
      "𝐫": 8944,
      "𝐬": 8945,
      "𝐭": 8946,
      "𝐮": 8947,
      "𝐯": 8948,
      "𝐰": 8949,
      "𝐱": 8950,
      "𝐲": 8951,
      "𝐴": 8952,
      "𝐵": 8953,
      "𝐶": 8954,
      "𝐷": 8955,
      "𝐸": 8956,
      "𝐹": 8957,
      "𝐺": 8958,
      "𝐻": 8959,
      "𝐼": 8960,
      "𝐽": 8961,
      "𝐾": 8962,
      "𝐿": 8963,
      "𝑀": 8964,
      "𝑁": 8965,
      "𝑂": 8966,
      "𝑃": 8967,
      "𝑄": 8968,
      "𝑅": 8969,
      "𝑆": 8970,
      "𝑇": 8971,
      "𝑈": 8972,
      "𝑉": 8973,
      "𝑊": 8974,
      "𝑋": 8975,
      "𝑌": 8976,
      "𝑍": 8977,
      "𝑎": 8978,
      "𝑏": 8979,
      "𝑐": 8980,
      "𝑑": 8981,
      "𝑒": 8982,
      "𝑓": 8983,
      "𝑔": 8984,
      "𝑖": 8985,
      "𝑗": 8986,
      "𝑘": 8987,
      "𝑙": 8988,
      "𝑚": 8989,
      "𝑛": 8990,
      "𝑜": 8991,
      "𝑝": 8992,
      "𝑞": 8993,
      "𝑟": 8994,
      "𝑠": 8995,
      "𝑡": 8996,
      "𝑢": 8997,
      "𝑣": 8998,
      "𝑤": 8999,
      "𝑥": 9000,
      "𝑦": 9001,
      "𝑧": 9002,
      "𝑨": 9003,
      "𝑩": 9004,
      "𝑪": 9005,
      "𝑫": 9006,
      "𝑬": 9007,
      "𝑭": 9008,
      "𝑮": 9009,
      "𝑯": 9010,
      "𝑰": 9011,
      "𝑱": 9012,
      "𝑲": 9013,
      "𝑳": 9014,
      "𝑴": 9015,
      "𝑵": 9016,
      "𝑶": 9017,
      "𝑷": 9018,
      "𝑸": 9019,
      "𝑹": 9020,
      "𝑺": 9021,
      "𝑻": 9022,
      "𝑼": 9023,
      "𝑽": 9024,
      "𝑾": 9025,
      "𝑿": 9026,
      "𝒀": 9027,
      "𝒁": 9028,
      "𝒂": 9029,
      "𝒃": 9030,
      "𝒄": 9031,
      "𝒅": 9032,
      "𝒆": 9033,
      "𝒇": 9034,
      "𝒈": 9035,
      "𝒉": 9036,
      "𝒊": 9037,
      "𝒋": 9038,
      "𝒌": 9039,
      "𝒍": 9040,
      "𝒎": 9041,
      "𝒏": 9042,
      "𝒐": 9043,
      "𝒑": 9044,
      "𝒒": 9045,
      "𝒓": 9046,
      "𝒔": 9047,
      "𝒕": 9048,
      "𝒖": 9049,
      "𝒗": 9050,
      "𝒘": 9051,
      "𝒙": 9052,
      "𝒚": 9053,
      "𝒪": 9054,
      "𝒫": 9055,
      "𝒾": 9056,
      "𝓇": 9057,
      "𝓊": 9058,
      "𝓋": 9059,
      "𝓍": 9060,
      "𝓎": 9061,
      "𝓐": 9062,
      "𝓑": 9063,
      "𝓒": 9064,
      "𝓓": 9065,
      "𝓔": 9066,
      "𝓖": 9067,
      "𝓗": 9068,
      "𝓘": 9069,
      "𝓚": 9070,
      "𝓛": 9071,
      "𝓜": 9072,
      "𝓝": 9073,
      "𝓞": 9074,
      "𝓟": 9075,
      "𝓢": 9076,
      "𝓣": 9077,
      "𝓤": 9078,
      "𝓦": 9079,
      "𝓨": 9080,
      "𝓪": 9081,
      "𝓫": 9082,
      "𝓬": 9083,
      "𝓭": 9084,
      "𝓮": 9085,
      "𝓯": 9086,
      "𝓰": 9087,
      "𝓱": 9088,
      "𝓲": 9089,
      "𝓳": 9090,
      "𝓴": 9091,
      "𝓵": 9092,
      "𝓶": 9093,
      "𝓷": 9094,
      "𝓸": 9095,
      "𝓹": 9096,
      "𝓺": 9097,
      "𝓻": 9098,
      "𝓼": 9099,
      "𝓽": 9100,
      "𝓾": 9101,
      "𝓿": 9102,
      "𝔀": 9103,
      "𝔂": 9104,
      "𝔯": 9105,
      "𝔴": 9106,
      "𝔸": 9107,
      "𝔹": 9108,
      "𝔼": 9109,
      "𝔾": 9110,
      "𝕀": 9111,
      "𝕃": 9112,
      "𝕄": 9113,
      "𝕆": 9114,
      "𝕊": 9115,
      "𝕋": 9116,
      "𝕎": 9117,
      "𝕏": 9118,
      "𝕐": 9119,
      "𝕒": 9120,
      "𝕓": 9121,
      "𝕔": 9122,
      "𝕕": 9123,
      "𝕖": 9124,
      "𝕗": 9125,
      "𝕘": 9126,
      "𝕙": 9127,
      "𝕚": 9128,
      "𝕛": 9129,
      "𝕜": 9130,
      "𝕝": 9131,
      "𝕞": 9132,
      "𝕟": 9133,
      "𝕠": 9134,
      "𝕡": 9135,
      "𝕢": 9136,
      "𝕣": 9137,
      "𝕤": 9138,
      "𝕥": 9139,
      "𝕦": 9140,
      "𝕧": 9141,
      "𝕨": 9142,
      "𝕩": 9143,
      "𝕪": 9144,
      "𝕮": 9145,
      "𝕳": 9146,
      "𝕷": 9147,
      "𝕿": 9148,
      "𝖆": 9149,
      "𝖇": 9150,
      "𝖈": 9151,
      "𝖉": 9152,
      "𝖊": 9153,
      "𝖋": 9154,
      "𝖌": 9155,
      "𝖍": 9156,
      "𝖎": 9157,
      "𝖏": 9158,
      "𝖐": 9159,
      "𝖑": 9160,
      "𝖒": 9161,
      "𝖓": 9162,
      "𝖔": 9163,
      "𝖕": 9164,
      "𝖖": 9165,
      "𝖗": 9166,
      "𝖘": 9167,
      "𝖙": 9168,
      "𝖚": 9169,
      "𝖛": 9170,
      "𝖜": 9171,
      "𝖝": 9172,
      "𝖞": 9173,
      "𝗍": 9174,
      "𝗔": 9175,
      "𝗕": 9176,
      "𝗖": 9177,
      "𝗗": 9178,
      "𝗘": 9179,
      "𝗙": 9180,
      "𝗛": 9181,
      "𝗜": 9182,
      "𝗟": 9183,
      "𝗠": 9184,
      "𝗢": 9185,
      "𝗣": 9186,
      "𝗥": 9187,
      "𝗦": 9188,
      "𝗧": 9189,
      "𝗨": 9190,
      "𝗩": 9191,
      "𝗪": 9192,
      "𝗬": 9193,
      "𝗮": 9194,
      "𝗯": 9195,
      "𝗰": 9196,
      "𝗱": 9197,
      "𝗲": 9198,
      "𝗳": 9199,
      "𝗴": 9200,
      "𝗵": 9201,
      "𝗶": 9202,
      "𝗸": 9203,
      "𝗹": 9204,
      "𝗺": 9205,
      "𝗻": 9206,
      "𝗼": 9207,
      "𝗽": 9208,
      "𝗾": 9209,
      "𝗿": 9210,
      "𝘀": 9211,
      "𝘁": 9212,
      "𝘂": 9213,
      "𝘃": 9214,
      "𝘄": 9215,
      "𝘅": 9216,
      "𝘆": 9217,
      "𝘇": 9218,
      "𝘉": 9219,
      "𝘋": 9220,
      "𝘓": 9221,
      "𝘛": 9222,
      "𝘞": 9223,
      "𝘠": 9224,
      "𝘢": 9225,
      "𝘣": 9226,
      "𝘤": 9227,
      "𝘥": 9228,
      "𝘦": 9229,
      "𝘧": 9230,
      "𝘨": 9231,
      "𝘩": 9232,
      "𝘪": 9233,
      "𝘫": 9234,
      "𝘬": 9235,
      "𝘭": 9236,
      "𝘮": 9237,
      "𝘯": 9238,
      "𝘰": 9239,
      "𝘱": 9240,
      "𝘳": 9241,
      "𝘴": 9242,
      "𝘵": 9243,
      "𝘶": 9244,
      "𝘷": 9245,
      "𝘸": 9246,
      "𝘺": 9247,
      "𝘽": 9248,
      "𝘾": 9249,
      "𝙀": 9250,
      "𝙁": 9251,
      "𝙄": 9252,
      "𝙆": 9253,
      "𝙋": 9254,
      "𝙍": 9255,
      "𝙎": 9256,
      "𝙏": 9257,
      "𝙐": 9258,
      "𝙖": 9259,
      "𝙗": 9260,
      "𝙘": 9261,
      "𝙙": 9262,
      "𝙚": 9263,
      "𝙛": 9264,
      "𝙜": 9265,
      "𝙝": 9266,
      "𝙞": 9267,
      "𝙟": 9268,
      "𝙠": 9269,
      "𝙡": 9270,
      "𝙢": 9271,
      "𝙣": 9272,
      "𝙤": 9273,
      "𝙥": 9274,
      "𝙧": 9275,
      "𝙨": 9276,
      "𝙩": 9277,
      "𝙪": 9278,
      "𝙫": 9279,
      "𝙬": 9280,
      "𝙭": 9281,
      "𝙮": 9282,
      "𝙯": 9283,
      "𝙰": 9284,
      "𝚂": 9285,
      "𝚃": 9286,
      "𝚅": 9287,
      "𝚊": 9288,
      "𝚋": 9289,
      "𝚌": 9290,
      "𝚍": 9291,
      "𝚎": 9292,
      "𝚏": 9293,
      "𝚐": 9294,
      "𝚑": 9295,
      "𝚒": 9296,
      "𝚓": 9297,
      "𝚔": 9298,
      "𝚕": 9299,
      "𝚖": 9300,
      "𝚗": 9301,
      "𝚘": 9302,
      "𝚙": 9303,
      "𝚚": 9304,
      "𝚛": 9305,
      "𝚜": 9306,
      "𝚝": 9307,
      "𝚞": 9308,
      "𝚟": 9309,
      "𝚠": 9310,
      "𝚢": 9311,
      "𝚪": 9312,
      "𝛀": 9313,
      "𝛍": 9314,
      "𝛥": 9315,
      "𝛻": 9316,
      "𝛼": 9317,
      "𝛽": 9318,
      "𝛾": 9319,
      "𝛿": 9320,
      "𝜀": 9321,
      "𝜂": 9322,
      "𝜃": 9323,
      "𝜆": 9324,
      "𝜇": 9325,
      "𝜈": 9326,
      "𝜋": 9327,
      "𝜌": 9328,
      "𝜎": 9329,
      "𝜏": 9330,
      "𝜐": 9331,
      "𝜑": 9332,
      "𝜔": 9333,
      "𝜕": 9334,
      "𝜖": 9335,
      "𝜙": 9336,
      "𝜶": 9337,
      "𝜷": 9338,
      "𝜺": 9339,
      "𝜽": 9340,
      "𝝎": 9341,
      "𝞃": 9342,
      "𝟎": 9343,
      "𝟏": 9344,
      "𝟐": 9345,
      "𝟑": 9346,
      "𝟒": 9347,
      "𝟓": 9348,
      "𝟔": 9349,
      "𝟕": 9350,
      "𝟖": 9351,
      "𝟗": 9352,
      "𝟙": 9353,
      "𝟜": 9354,
      "𝟤": 9355,
      "𝟥": 9356,
      "𝟬": 9357,
      "𝟭": 9358,
      "𝟮": 9359,
      "𝟯": 9360,
      "𝟰": 9361,
      "𝟱": 9362,
      "𝟴": 9363,
      "𝟷": 9364,
      "𝟺": 9365,
      "𝟾": 9366,
      "🃏": 9367,
      "🄯": 9368,
      "🅰": 9369,
      "🅱": 9370,
      "🅴": 9371,
      "🅶": 9372,
      "🅷": 9373,
      "🅸": 9374,
      "🅺": 9375,
      "🅻": 9376,
      "🅼": 9377,
      "🅽": 9378,
      "🅾": 9379,
      "🆁": 9380,
      "🆂": 9381,
      "🆃": 9382,
      "🆅": 9383,
      "🆈": 9384,
      "🆎": 9385,
      "🆒": 9386,
      "🆓": 9387,
      "🆕": 9388,
      "🆖": 9389,
      "🆙": 9390,
      "🆚": 9391,
      "🇦": 9392,
      "🇧": 9393,
      "🇨": 9394,
      "🇩": 9395,
      "🇪": 9396,
      "🇫": 9397,
      "🇬": 9398,
      "🇭": 9399,
      "🇮": 9400,
      "🇯": 9401,
      "🇰": 9402,
      "🇱": 9403,
      "🇲": 9404,
      "🇳": 9405,
      "🇴": 9406,
      "🇵": 9407,
      "🇶": 9408,
      "🇷": 9409,
      "🇸": 9410,
      "🇹": 9411,
      "🇺": 9412,
      "🇻": 9413,
      "🇼": 9414,
      "🇽": 9415,
      "🇾": 9416,
      "🇿": 9417,
      "🌀": 9418,
      "🌁": 9419,
      "🌃": 9420,
      "🌄": 9421,
      "🌅": 9422,
      "🌆": 9423,
      "🌇": 9424,
      "🌈": 9425,
      "🌉": 9426,
      "🌊": 9427,
      "🌋": 9428,
      "🌌": 9429,
      "🌍": 9430,
      "🌎": 9431,
      "🌏": 9432,
      "🌐": 9433,
      "🌑": 9434,
      "🌓": 9435,
      "🌔": 9436,
      "🌕": 9437,
      "🌖": 9438,
      "🌗": 9439,
      "🌘": 9440,
      "🌙": 9441,
      "🌚": 9442,
      "🌛": 9443,
      "🌝": 9444,
      "🌞": 9445,
      "🌟": 9446,
      "🌠": 9447,
      "🌡": 9448,
      "🌤": 9449,
      "🌦": 9450,
      "🌧": 9451,
      "🌪": 9452,
      "🌫": 9453,
      "🌬": 9454,
      "🌯": 9455,
      "🌱": 9456,
      "🌲": 9457,
      "🌳": 9458,
      "🌴": 9459,
      "🌵": 9460,
      "🌶": 9461,
      "🌷": 9462,
      "🌸": 9463,
      "🌹": 9464,
      "🌺": 9465,
      "🌻": 9466,
      "🌼": 9467,
      "🌾": 9468,
      "🌿": 9469,
      "🍀": 9470,
      "🍁": 9471,
      "🍂": 9472,
      "🍃": 9473,
      "🍅": 9474,
      "🍇": 9475,
      "🍈": 9476,
      "🍉": 9477,
      "🍊": 9478,
      "🍋": 9479,
      "🍍": 9480,
      "🍎": 9481,
      "🍏": 9482,
      "🍐": 9483,
      "🍑": 9484,
      "🍒": 9485,
      "🍓": 9486,
      "🍔": 9487,
      "🍕": 9488,
      "🍖": 9489,
      "🍙": 9490,
      "🍛": 9491,
      "🍝": 9492,
      "🍞": 9493,
      "🍟": 9494,
      "🍡": 9495,
      "🍣": 9496,
      "🍥": 9497,
      "🍦": 9498,
      "🍧": 9499,
      "🍨": 9500,
      "🍩": 9501,
      "🍪": 9502,
      "🍬": 9503,
      "🍭": 9504,
      "🍯": 9505,
      "🍰": 9506,
      "🍲": 9507,
      "🍳": 9508,
      "🍴": 9509,
      "🍵": 9510,
      "🍶": 9511,
      "🍷": 9512,
      "🍸": 9513,
      "🍺": 9514,
      "🍻": 9515,
      "🍽": 9516,
      "🍾": 9517,
      "🍿": 9518,
      "🎀": 9519,
      "🎁": 9520,
      "🎂": 9521,
      "🎃": 9522,
      "🎄": 9523,
      "🎆": 9524,
      "🎇": 9525,
      "🎈": 9526,
      "🎉": 9527,
      "🎊": 9528,
      "🎌": 9529,
      "🎐": 9530,
      "🎑": 9531,
      "🎒": 9532,
      "🎓": 9533,
      "🎖": 9534,
      "🎗": 9535,
      "🎙": 9536,
      "🎚": 9537,
      "🎛": 9538,
      "🎞": 9539,
      "🎟": 9540,
      "🎠": 9541,
      "🎡": 9542,
      "🎢": 9543,
      "🎣": 9544,
      "🎤": 9545,
      "🎥": 9546,
      "🎦": 9547,
      "🎧": 9548,
      "🎨": 9549,
      "🎩": 9550,
      "🎪": 9551,
      "🎫": 9552,
      "🎬": 9553,
      "🎭": 9554,
      "🎮": 9555,
      "🎯": 9556,
      "🎱": 9557,
      "🎲": 9558,
      "🎳": 9559,
      "🎴": 9560,
      "🎵": 9561,
      "🎶": 9562,
      "🎷": 9563,
      "🎸": 9564,
      "🎹": 9565,
      "🎺": 9566,
      "🎼": 9567,
      "🏀": 9568,
      "🏁": 9569,
      "🏂": 9570,
      "🏃": 9571,
      "🏅": 9572,
      "🏆": 9573,
      "🏇": 9574,
      "🏈": 9575,
      "🏊": 9576,
      "🏋": 9577,
      "🏌": 9578,
      "🏍": 9579,
      "🏎": 9580,
      "🏏": 9581,
      "🏐": 9582,
      "🏓": 9583,
      "🏔": 9584,
      "🏕": 9585,
      "🏖": 9586,
      "🏗": 9587,
      "🏘": 9588,
      "🏙": 9589,
      "🏛": 9590,
      "🏜": 9591,
      "🏝": 9592,
      "🏞": 9593,
      "🏟": 9594,
      "🏠": 9595,
      "🏡": 9596,
      "🏢": 9597,
      "🏣": 9598,
      "🏥": 9599,
      "🏦": 9600,
      "🏫": 9601,
      "🏬": 9602,
      "🏭": 9603,
      "🏮": 9604,
      "🏯": 9605,
      "🏰": 9606,
      "🏳": 9607,
      "🏴": 9608,
      "🏵": 9609,
      "🏷": 9610,
      "🏸": 9611,
      "🏹": 9612,
      "🏻": 9613,
      "🏼": 9614,
      "🏽": 9615,
      "🏾": 9616,
      "🏿": 9617,
      "🐃": 9618,
      "🐇": 9619,
      "🐈": 9620,
      "🐉": 9621,
      "🐋": 9622,
      "🐌": 9623,
      "🐍": 9624,
      "🐎": 9625,
      "🐐": 9626,
      "🐑": 9627,
      "🐒": 9628,
      "🐔": 9629,
      "🐕": 9630,
      "🐘": 9631,
      "🐙": 9632,
      "🐛": 9633,
      "🐜": 9634,
      "🐝": 9635,
      "🐞": 9636,
      "🐟": 9637,
      "🐠": 9638,
      "🐢": 9639,
      "🐣": 9640,
      "🐤": 9641,
      "🐥": 9642,
      "🐦": 9643,
      "🐧": 9644,
      "🐨": 9645,
      "🐮": 9646,
      "🐯": 9647,
      "🐰": 9648,
      "🐱": 9649,
      "🐲": 9650,
      "🐳": 9651,
      "🐴": 9652,
      "🐵": 9653,
      "🐶": 9654,
      "🐷": 9655,
      "🐸": 9656,
      "🐻": 9657,
      "🐼": 9658,
      "🐽": 9659,
      "🐾": 9660,
      "🐿": 9661,
      "👀": 9662,
      "👁": 9663,
      "👃": 9664,
      "👅": 9665,
      "👆": 9666,
      "👇": 9667,
      "👈": 9668,
      "👉": 9669,
      "👊": 9670,
      "👋": 9671,
      "👌": 9672,
      "👍": 9673,
      "👎": 9674,
      "👏": 9675,
      "👑": 9676,
      "👒": 9677,
      "👓": 9678,
      "👔": 9679,
      "👕": 9680,
      "👗": 9681,
      "👛": 9682,
      "👝": 9683,
      "👞": 9684,
      "👟": 9685,
      "👤": 9686,
      "👥": 9687,
      "👦": 9688,
      "👧": 9689,
      "👨": 9690,
      "👩": 9691,
      "👪": 9692,
      "👮": 9693,
      "👯": 9694,
      "👰": 9695,
      "👴": 9696,
      "👵": 9697,
      "👶": 9698,
      "👷": 9699,
      "👸": 9700,
      "👹": 9701,
      "👺": 9702,
      "👻": 9703,
      "👼": 9704,
      "👽": 9705,
      "👾": 9706,
      "💀": 9707,
      "💁": 9708,
      "💂": 9709,
      "💃": 9710,
      "💅": 9711,
      "💆": 9712,
      "💇": 9713,
      "💈": 9714,
      "💉": 9715,
      "💊": 9716,
      "💋": 9717,
      "💌": 9718,
      "💍": 9719,
      "💎": 9720,
      "💏": 9721,
      "💐": 9722,
      "💑": 9723,
      "💒": 9724,
      "💓": 9725,
      "💔": 9726,
      "💕": 9727,
      "💖": 9728,
      "💘": 9729,
      "💙": 9730,
      "💚": 9731,
      "💛": 9732,
      "💜": 9733,
      "💝": 9734,
      "💞": 9735,
      "💟": 9736,
      "💠": 9737,
      "💡": 9738,
      "💣": 9739,
      "💤": 9740,
      "💥": 9741,
      "💦": 9742,
      "💧": 9743,
      "💨": 9744,
      "💩": 9745,
      "💪": 9746,
      "💫": 9747,
      "💬": 9748,
      "💭": 9749,
      "💮": 9750,
      "💯": 9751,
      "💰": 9752,
      "💳": 9753,
      "💵": 9754,
      "💸": 9755,
      "💺": 9756,
      "💻": 9757,
      "💼": 9758,
      "💾": 9759,
      "📀": 9760,
      "📁": 9761,
      "📂": 9762,
      "📃": 9763,
      "📄": 9764,
      "📅": 9765,
      "📆": 9766,
      "📈": 9767,
      "📉": 9768,
      "📊": 9769,
      "📋": 9770,
      "📌": 9771,
      "📍": 9772,
      "📎": 9773,
      "📏": 9774,
      "📐": 9775,
      "📑": 9776,
      "📒": 9777,
      "📓": 9778,
      "📔": 9779,
      "📕": 9780,
      "📖": 9781,
      "📗": 9782,
      "📘": 9783,
      "📙": 9784,
      "📚": 9785,
      "📛": 9786,
      "📜": 9787,
      "📝": 9788,
      "📞": 9789,
      "📟": 9790,
      "📠": 9791,
      "📡": 9792,
      "📢": 9793,
      "📣": 9794,
      "📥": 9795,
      "📦": 9796,
      "📧": 9797,
      "📨": 9798,
      "📩": 9799,
      "📪": 9800,
      "📫": 9801,
      "📬": 9802,
      "📭": 9803,
      "📮": 9804,
      "📰": 9805,
      "📱": 9806,
      "📲": 9807,
      "📵": 9808,
      "📶": 9809,
      "📷": 9810,
      "📸": 9811,
      "📹": 9812,
      "📺": 9813,
      "📼": 9814,
      "📽": 9815,
      "🔀": 9816,
      "🔁": 9817,
      "🔃": 9818,
      "🔄": 9819,
      "🔆": 9820,
      "🔇": 9821,
      "🔉": 9822,
      "🔊": 9823,
      "🔋": 9824,
      "🔌": 9825,
      "🔍": 9826,
      "🔎": 9827,
      "🔏": 9828,
      "🔐": 9829,
      "🔑": 9830,
      "🔒": 9831,
      "🔓": 9832,
      "🔔": 9833,
      "🔕": 9834,
      "🔖": 9835,
      "🔗": 9836,
      "🔘": 9837,
      "🔜": 9838,
      "🔝": 9839,
      "🔡": 9840,
      "🔢": 9841,
      "🔣": 9842,
      "🔥": 9843,
      "🔦": 9844,
      "🔧": 9845,
      "🔨": 9846,
      "🔫": 9847,
      "🔬": 9848,
      "🔭": 9849,
      "🔮": 9850,
      "🔰": 9851,
      "🔱": 9852,
      "🔲": 9853,
      "🔳": 9854,
      "🔴": 9855,
      "🔵": 9856,
      "🔶": 9857,
      "🔸": 9858,
      "🔹": 9859,
      "🔺": 9860,
      "🔻": 9861,
      "🔽": 9862,
      "🕉": 9863,
      "🕊": 9864,
      "🕐": 9865,
      "🕒": 9866,
      "🕘": 9867,
      "🕙": 9868,
      "🕚": 9869,
      "🕮": 9870,
      "🕯": 9871,
      "🕰": 9872,
      "🕳": 9873,
      "🕵": 9874,
      "🕶": 9875,
      "🕷": 9876,
      "🕸": 9877,
      "🕹": 9878,
      "🕺": 9879,
      "🖇": 9880,
      "🖊": 9881,
      "🖋": 9882,
      "🖌": 9883,
      "🖕": 9884,
      "🖖": 9885,
      "🖤": 9886,
      "🖥": 9887,
      "🖨": 9888,
      "🖱": 9889,
      "🖼": 9890,
      "🗂": 9891,
      "🗃": 9892,
      "🗄": 9893,
      "🗑": 9894,
      "🗒": 9895,
      "🗓": 9896,
      "🗜": 9897,
      "🗝": 9898,
      "🗞": 9899,
      "🗡": 9900,
      "🗣": 9901,
      "🗨": 9902,
      "🗯": 9903,
      "🗳": 9904,
      "🗸": 9905,
      "🗺": 9906,
      "🗿": 9907,
      "😀": 9908,
      "😁": 9909,
      "😂": 9910,
      "😃": 9911,
      "😄": 9912,
      "😅": 9913,
      "😆": 9914,
      "😇": 9915,
      "😈": 9916,
      "😉": 9917,
      "😊": 9918,
      "😋": 9919,
      "😌": 9920,
      "😍": 9921,
      "😎": 9922,
      "😏": 9923,
      "😐": 9924,
      "😒": 9925,
      "😔": 9926,
      "😕": 9927,
      "😘": 9928,
      "😚": 9929,
      "😛": 9930,
      "😜": 9931,
      "😝": 9932,
      "😞": 9933,
      "😟": 9934,
      "😠": 9935,
      "😡": 9936,
      "😢": 9937,
      "😣": 9938,
      "😤": 9939,
      "😥": 9940,
      "😨": 9941,
      "😩": 9942,
      "😪": 9943,
      "😬": 9944,
      "😭": 9945,
      "😯": 9946,
      "😲": 9947,
      "😳": 9948,
      "😴": 9949,
      "😶": 9950,
      "😷": 9951,
      "😸": 9952,
      "😺": 9953,
      "😻": 9954,
      "😼": 9955,
      "😽": 9956,
      "🙀": 9957,
      "🙁": 9958,
      "🙂": 9959,
      "🙃": 9960,
      "🙄": 9961,
      "🙇": 9962,
      "🙈": 9963,
      "🙉": 9964,
      "🙊": 9965,
      "🙋": 9966,
      "🙌": 9967,
      "🙏": 9968,
      "🚀": 9969,
      "🚁": 9970,
      "🚂": 9971,
      "🚃": 9972,
      "🚄": 9973,
      "🚆": 9974,
      "🚇": 9975,
      "🚉": 9976,
      "🚌": 9977,
      "🚏": 9978,
      "🚒": 9979,
      "🚓": 9980,
      "🚕": 9981,
      "🚖": 9982,
      "🚗": 9983,
      "🚘": 9984,
      "🚙": 9985,
      "🚚": 9986,
      "🚛": 9987,
      "🚜": 9988,
      "🚢": 9989,
      "🚤": 9990,
      "🚥": 9991,
      "🚦": 9992,
      "🚧": 9993,
      "🚨": 9994,
      "🚩": 9995,
      "🚫": 9996,
      "🚲": 9997,
      "🚴": 9998,
      "🚽": 9999,
      "🛋": 10000,
      "🛌": 10001,
      "🛍": 10002,
      "🛎": 10003,
      "🛑": 10004,
      "🛒": 10005,
      "🛕": 10006,
      "🛖": 10007,
      "🛠": 10008,
      "🛡": 10009,
      "🛢": 10010,
      "🛣": 10011,
      "🛤": 10012,
      "🛩": 10013,
      "🛫": 10014,
      "🛰": 10015,
      "🛸": 10016,
      "🛹": 10017,
      "🜨": 10018,
      "🝂": 10019,
      "🟠": 10020,
      "🟡": 10021,
      "🟢": 10022,
      "🟣": 10023,
      "🟥": 10024,
      "🟨": 10025,
      "🟩": 10026,
      "🟪": 10027,
      "🡪": 10028,
      "🡺": 10029,
      "🤌": 10030,
      "🤍": 10031,
      "🤎": 10032,
      "🤏": 10033,
      "🤑": 10034,
      "🤒": 10035,
      "🤓": 10036,
      "🤔": 10037,
      "🤖": 10038,
      "🤗": 10039,
      "🤘": 10040,
      "🤙": 10041,
      "🤝": 10042,
      "🤞": 10043,
      "🤠": 10044,
      "🤡": 10045,
      "🤣": 10046,
      "🤤": 10047,
      "🤦": 10048,
      "🤧": 10049,
      "🤩": 10050,
      "🤪": 10051,
      "🤫": 10052,
      "🤬": 10053,
      "🤭": 10054,
      "🤮": 10055,
      "🤯": 10056,
      "🤲": 10057,
      "🤳": 10058,
      "🤵": 10059,
      "🤷": 10060,
      "🤸": 10061,
      "🤹": 10062,
      "🤼": 10063,
      "🤾": 10064,
      "🥀": 10065,
      "🥁": 10066,
      "🥂": 10067,
      "🥃": 10068,
      "🥅": 10069,
      "🥇": 10070,
      "🥈": 10071,
      "🥉": 10072,
      "🥊": 10073,
      "🥋": 10074,
      "🥏": 10075,
      "🥑": 10076,
      "🥔": 10077,
      "🥕": 10078,
      "🥗": 10079,
      "🥘": 10080,
      "🥚": 10081,
      "🥡": 10082,
      "🥤": 10083,
      "🥧": 10084,
      "🥭": 10085,
      "🥰": 10086,
      "🥲": 10087,
      "🥳": 10088,
      "🥴": 10089,
      "🥵": 10090,
      "🥶": 10091,
      "🥺": 10092,
      "🥽": 10093,
      "🥾": 10094,
      "🦀": 10095,
      "🦁": 10096,
      "🦂": 10097,
      "🦃": 10098,
      "🦄": 10099,
      "🦅": 10100,
      "🦆": 10101,
      "🦈": 10102,
      "🦉": 10103,
      "🦊": 10104,
      "🦋": 10105,
      "🦎": 10106,
      "🦏": 10107,
      "🦑": 10108,
      "🦒": 10109,
      "🦓": 10110,
      "🦔": 10111,
      "🦕": 10112,
      "🦗": 10113,
      "🦚": 10114,
      "🦜": 10115,
      "🦝": 10116,
      "🦡": 10117,
      "🦦": 10118,
      "🦧": 10119,
      "🦭": 10120,
      "🦮": 10121,
      "🦴": 10122,
      "🦸": 10123,
      "🦺": 10124,
      "🦾": 10125,
      "🧀": 10126,
      "🧃": 10127,
      "🧋": 10128,
      "🧏": 10129,
      "🧐": 10130,
      "🧑": 10131,
      "🧒": 10132,
      "🧗": 10133,
      "🧙": 10134,
      "🧚": 10135,
      "🧛": 10136,
      "🧟": 10137,
      "🧠": 10138,
      "🧡": 10139,
      "🧧": 10140,
      "🧨": 10141,
      "🧩": 10142,
      "🧪": 10143,
      "🧬": 10144,
      "🧭": 10145,
      "🧮": 10146,
      "🧰": 10147,
      "🧱": 10148,
      "🧲": 10149,
      "🧳": 10150,
      "🧶": 10151,
      "🧸": 10152,
      "🧹": 10153,
      "🧺": 10154,
      "🧼": 10155,
      "🧾": 10156,
      "🧿": 10157,
      "🩸": 10158,
      "🩹": 10159,
      "🩺": 10160,
      "🪂": 10161,
      "🪄": 10162,
      "🪐": 10163,
      "🪓": 10164,
      "🪔": 10165,
      "🪙": 10166,
      "🪛": 10167,
      "🪟": 10168,
      "🪧": 10169,
      "🪰": 10170,
      "🪲": 10171,
      "🫀": 10172,
      "🫂": 10173,
      "in": 10174,
      "an": 10175,
      "on": 10176,
      "th": 10177,
      "er": 10178,
      "en": 10179,
      "ar": 10180,
      "at": 10181,
      "es": 10182,
      "or": 10183,
      "al": 10184,
      "ing": 10185,
      "the": 10186,
      "of": 10187,
      "ion": 10188,
      "is": 10189,
      "it": 10190,
      "re": 10191,
      "ed": 10192,
      "ic": 10193,
      "ent": 10194,
      "and": 10195,
      "as": 10196,
      "ou": 10197,
      "to": 10198,
      "st": 10199,
      "le": 10200,
      "ation": 10201,
      "for": 10202,
      "ment": 10203,
      "om": 10204,
      "ct": 10205,
      "el": 10206,
      "ad": 10207,
      "il": 10208,
      "ol": 10209,
      "ch": 10210,
      "20": 10211,
      "ard": 10212,
      "am": 10213,
      "ot": 10214,
      "Re": 10215,
      "ce": 10216,
      "ap": 10217,
      "iv": 10218,
      "ro": 10219,
      "gard": 10220,
      "garding": 10221,
      "ers": 10222,
      "ur": 10223,
      "im": 10224,
      "ag": 10225,
      "..": 10226,
      "202": 10227,
      "ut": 10228,
      "em": 10229,
      "et": 10230,
      "if": 10231,
      "id": 10232,
      "In": 10233,
      "ul": 10234,
      "ow": 10235,
      "int": 10236,
      "ay": 10237,
      "ig": 10238,
      "ist": 10239,
      "he": 10240,
      "De": 10241,
      "ac": 10242,
      "se": 10243,
      "ity": 10244,
      "un": 10245,
      "ess": 10246,
      "od": 10247,
      "art": 10248,
      "po": 10249,
      "ir": 10250,
      "ab": 10251,
      "Regarding": 10252,
      "ud": 10253,
      "all": 10254,
      "ate": 10255,
      "us": 10256,
      "St": 10257,
      "be": 10258,
      "con": 10259,
      "sh": 10260,
      "op": 10261,
      "pl": 10262,
      "ter": 10263,
      "ra": 10264,
      "ies": 10265,
      "our": 10266,
      "est": 10267,
      "are": 10268,
      "ith": 10269,
      "um": 10270,
      "ve": 10271,
      "ication": 10272,
      "ip": 10273,
      "The": 10274,
      "ha": 10275,
      "ex": 10276,
      "ore": 10277,
      "com": 10278,
      "lo": 10279,
      "with": 10280,
      "Not": 10281,
      "ver": 10282,
      "der": 10283,
      "00": 10284,
      "pro": 10285,
      "age": 10286,
      "point": 10287,
      "wh": 10288,
      "pr": 10289,
      "ure": 10290,
      "ant": 10291,
      "ear": 10292,
      "ification": 10293,
      "part": 10294,
      "ect": 10295,
      "ind": 10296,
      "end": 10297,
      "qu": 10298,
      "appoint": 10299,
      "Notification": 10300,
      "fr": 10301,
      "that": 10302,
      "2024": 10303,
      "Un": 10304,
      "ci": 10305,
      "tr": 10306,
      "ew": 10307,
      "og": 10308,
      "de": 10309,
      "ak": 10310,
      "ions": 10311,
      "ang": 10312,
      "oun": 10313,
      "Ch": 10314,
      "....": 10315,
      "up": 10316,
      "te": 10317,
      "ated": 10318,
      "os": 10319,
      "ill": 10320,
      "Com": 10321,
      "ence": 10322,
      "by": 10323,
      "__": 10324,
      "ly": 10325,
      "partment": 10326,
      "ire": 10327,
      "appointment": 10328,
      "regarding": 10329,
      "He": 10330,
      "ary": 10331,
      "gr": 10332,
      "ff": 10333,
      "igh": 10334,
      "Sh": 10335,
      "ort": 10336,
      "2025": 10337,
      "Department": 10338,
      "ish": 10339,
      "ther": 10340,
      "ult": 10341,
      "Con": 10342,
      "ok": 10343,
      "ass": 10344,
      "als": 10345,
      "ive": 10346,
      "ib": 10347,
      "ub": 10348,
      "An": 10349,
      "ia": 10350,
      "ance": 10351,
      "per": 10352,
      "Ex": 10353,
      "cl": 10354,
      "Th": 10355,
      "ust": 10356,
      "ell": 10357,
      "ain": 10358,
      "10": 10359,
      "ik": 10360,
      "from": 10361,
      "ge": 10362,
      "Cent": 10363,
      "sion": 10364,
      "you": 10365,
      "pe": 10366,
      "du": 10367,
      "ine": 10368,
      "ach": 10369,
      "res": 10370,
      "wor": 10371,
      "ans": 10372,
      "ical": 10373,
      "ction": 10374,
      "out": 10375,
      "me": 10376,
      "ivers": 10377,
      "Stud": 10378,
      "we": 10379,
      "vel": 10380,
      "ru": 10381,
      "ice": 10382,
      "ld": 10383,
      "form": 10384,
      "ber": 10385,
      "More": 10386,
      "can": 10387,
      "ong": 10388,
      "iz": 10389,
      "Ind": 10390,
      "one": 10391,
      "low": 10392,
      "av": 10393,
      "ous": 10394,
      "ere": 10395,
      "ook": 10396,
      "not": 10397,
      "hi": 10398,
      "Univers": 10399,
      "Pr": 10400,
      "port": 10401,
      "Ac": 10402,
      "ie": 10403,
      "Comm": 10404,
      "Ar": 10405,
      "ast": 10406,
      "fer": 10407,
      "University": 10408,
      "ution": 10409,
      "Cl": 10410,
      "ory": 10411,
      "ight": 10412,
      "under": 10413,
      "act": 10414,
      "19": 10415,
      "ide": 10416,
      "Head": 10417,
      "ents": 10418,
      "Fac": 10419,
      "Ad": 10420,
      "irect": 10421,
      "oc": 10422,
      "ase": 10423,
      "ks": 10424,
      "12": 10425,
      "ational": 10426,
      "ug": 10427,
      "ian": 10428,
      "hy": 10429,
      "List": 10430,
      "ings": 10431,
      "Pro": 10432,
      "Se": 10433,
      "ign": 10434,
      "able": 10435,
      "ple": 10436,
      "ates": 10437,
      "over": 10438,
      "ost": 10439,
      "its": 10440,
      "Off": 10441,
      "ics": 10442,
      "ry": 10443,
      "tim": 10444,
      "olog": 10445,
      "has": 10446,
      "have": 10447,
      "this": 10448,
      "ility": 10449,
      "Wh": 10450,
      "ne": 10451,
      "ces": 10452,
      "was": 10453,
      "ue": 10454,
      "11": 10455,
      "stit": 10456,
      "ail": 10457,
      "ship": 10458,
      "En": 10459,
      "ations": 10460,
      "Inter": 10461,
      "cre": 10462,
      "pt": 10463,
      "erv": 10464,
      "........": 10465,
      "Dean": 10466,
      "man": 10467,
      "your": 10468,
      "14": 10469,
      "ich": 10470,
      "olle": 10471,
      "ame": 10472,
      "gh": 10473,
      "ite": 10474,
      "Direct": 10475,
      "--": 10476,
      "Al": 10477,
      "ank": 10478,
      "put": 10479,
      "pre": 10480,
      "Centre": 10481,
      "ext": 10482,
      "own": 10483,
      "velop": 10484,
      "ri": 10485,
      "cial": 10486,
      "Del": 10487,
      "vis": 10488,
      "Hind": 10489,
      "Studies": 10490,
      "will": 10491,
      "itte": 10492,
      "comm": 10493,
      "ata": 10494,
      "ition": 10495,
      "Tr": 10496,
      "ology": 10497,
      "ome": 10498,
      "ace": 10499,
      "su": 10500,
      "ould": 10501,
      "____": 10502,
      "As": 10503,
      "vi": 10504,
      "ari": 10505,
      "ack": 10506,
      "ittee": 10507,
      "Delhi": 10508,
      "adem": 10509,
      "Rs": 10510,
      "ments": 10511,
      "aw": 10512,
      "cess": 10513,
      "other": 10514,
      "their": 10515,
      "mis": 10516,
      "ts": 10517,
      "ens": 10518,
      "now": 10519,
      "day": 10520,
      "18": 10521,
      "ough": 10522,
      "No": 10523,
      "ord": 10524,
      "yst": 10525,
      "ial": 10526,
      "Ma": 10527,
      "AN": 10528,
      "work": 10529,
      "CG": 10530,
      "Res": 10531,
      "so": 10532,
      "25": 10533,
      "ep": 10534,
      "ning": 10535,
      "15": 10536,
      "ree": 10537,
      "eng": 10538,
      "ound": 10539,
      "use": 10540,
      "ademic": 10541,
      "ital": 10542,
      "any": 10543,
      "pos": 10544,
      "Colle": 10545,
      "ise": 10546,
      "cr": 10547,
      "2023": 10548,
      "uth": 10549,
      "ollow": 10550,
      "stud": 10551,
      "har": 10552,
      "ular": 10553,
      "les": 10554,
      "ues": 10555,
      "ild": 10556,
      "which": 10557,
      "ension": 10558,
      "mat": 10559,
      "earch": 10560,
      "ally": 10561,
      "time": 10562,
      "sp": 10563,
      "rel": 10564,
      "Committee": 10565,
      "ual": 10566,
      "Offic": 10567,
      "ood": 10568,
      "Academic": 10569,
      "min": 10570,
      "Med": 10571,
      "lect": 10572,
      "ile": 10573,
      "also": 10574,
      "Under": 10575,
      "ck": 10576,
      "It": 10577,
      "ma": 10578,
      "lish": 10579,
      "30": 10580,
      "val": 10581,
      "velopment": 10582,
      "dated": 10583,
      "ese": 10584,
      "ors": 10585,
      "par": 10586,
      "Stat": 10587,
      "ject": 10588,
      "ob": 10589,
      "16": 10590,
      "्र": 10591,
      "ystem": 10592,
      "Intern": 10593,
      "ER": 10594,
      "af": 10595,
      "str": 10596,
      "God": 10597,
      "ved": 10598,
      "ath": 10599,
      "India": 10600,
      "uthor": 10601,
      "elf": 10602,
      "more": 10603,
      "ulty": 10604,
      "do": 10605,
      "13": 10606,
      "TI": 10607,
      "24": 10608,
      "coun": 10609,
      "cur": 10610,
      "Sci": 10611,
      "cont": 10612,
      "row": 10613,
      "Or": 10614,
      "oy": 10615,
      "clud": 10616,
      "mo": 10617,
      "ash": 10618,
      "fil": 10619,
      "ick": 10620,
      "dis": 10621,
      "CGS": 10622,
      "rit": 10623,
      "year": 10624,
      "College": 10625,
      "bal": 10626,
      "gram": 10627,
      "ana": 10628,
      "Ap": 10629,
      "ping": 10630,
      "been": 10631,
      "osp": 10632,
      "Officer": 10633,
      "Im": 10634,
      "ities": 10635,
      "ake": 10636,
      "follow": 10637,
      "Wor": 10638,
      "press": 10639,
      "ike": 10640,
      "Pl": 10641,
      "ages": 10642,
      "ON": 10643,
      "IN": 10644,
      "mission": 10645,
      "his": 10646,
      "ature": 10647,
      "off": 10648,
      "Te": 10649,
      "data": 10650,
      "rec": 10651,
      "Class": 10652,
      "Director": 10653,
      "09": 10654,
      "aj": 10655,
      "Sol": 10656,
      "Faculty": 10657,
      "Fe": 10658,
      "Book": 10659,
      "ade": 10660,
      "han": 10661,
      "We": 10662,
      "07": 10663,
      "na": 10664,
      "ool": 10665,
      "udd": 10666,
      "add": 10667,
      "tion": 10668,
      "Eng": 10669,
      "New": 10670,
      "=\"": 10671,
      "ating": 10672,
      "ater": 10673,
      "ract": 10674,
      "who": 10675,
      "AR": 10676,
      "...": 10677,
      "17": 10678,
      "Jo": 10679,
      "Author": 10680,
      "ling": 10681,
      "23": 10682,
      "list": 10683,
      "Ram": 10684,
      "What": 10685,
      "ference": 10686,
      "Mar": 10687,
      "Gr": 10688,
      "ya": 10689,
      "but": 10690,
      "rough": 10691,
      "no": 10692,
      "Qu": 10693,
      "000": 10694,
      "Em": 10695,
      "Art": 10696,
      "ays": 10697,
      "wo": 10698,
      "International": 10699,
      "angu": 10700,
      "If": 10701,
      "ener": 10702,
      "SE": 10703,
      "read": 10704,
      "This": 10705,
      "Sch": 10706,
      "Hindu": 10707,
      "01": 10708,
      "very": 10709,
      "ke": 10710,
      "stitution": 10711,
      "att": 10712,
      "state": 10713,
      "org": 10714,
      "pan": 10715,
      "arn": 10716,
      "br": 10717,
      "Statues": 10718,
      "Budd": 10719,
      "Facility": 10720,
      "Pol": 10721,
      "ven": 10722,
      "AM": 10723,
      "Man": 10724,
      "fe": 10725,
      "into": 10726,
      "28": 10727,
      "Research": 10728,
      "Hosp": 10729,
      "ps": 10730,
      "ern": 10731,
      "26": 10732,
      "Pap": 10733,
      "bo": 10734,
      "Indian": 10735,
      "stitut": 10736,
      "Ph": 10737,
      "mar": 10738,
      "new": 10739,
      "IC": 10740,
      "they": 10741,
      "lobal": 10742,
      "my": 10743,
      "cor": 10744,
      "ipping": 10745,
      "uate": 10746,
      "ely": 10747,
      "ph": 10748,
      "NC": 10749,
      "book": 10750,
      "erson": 10751,
      "ets": 10752,
      "ना": 10753,
      "serv": 10754,
      "ful": 10755,
      "hel": 10756,
      "sub": 10757,
      "Cont": 10758,
      "appointed": 10759,
      "istory": 10760,
      "Shipping": 10761,
      "ices": 10762,
      "tt": 10763,
      "vari": 10764,
      "ted": 10765,
      "aint": 10766,
      "quest": 10767,
      "ife": 10768,
      "resp": 10769,
      "Pay": 10770,
      "stru": 10771,
      "through": 10772,
      "dess": 10773,
      "following": 10774,
      "ism": 10775,
      "ST": 10776,
      "08": 10777,
      "For": 10778,
      "Br": 10779,
      "than": 10780,
      "sa": 10781,
      "ange": 10782,
      "her": 10783,
      "Goddess": 10784,
      "reg": 10785,
      "line": 10786,
      "Coun": 10787,
      ").": 10788,
      "iter": 10789,
      "io": 10790,
      "view": 10791,
      "cent": 10792,
      "led": 10793,
      "Am": 10794,
      "ased": 10795,
      "duc": 10796,
      "Act": 10797,
      "irst": 10798,
      "................": 10799,
      "),": 10800,
      "Global": 10801,
      "fin": 10802,
      "Dr": 10803,
      "Headship": 10804,
      "pol": 10805,
      "go": 10806,
      "Shiv": 10807,
      "uman": 10808,
      "old": 10809,
      "You": 10810,
      "overn": 10811,
      "22": 10812,
      "Development": 10813,
      "ploy": 10814,
      "cy": 10815,
      "grad": 10816,
      "Aug": 10817,
      "num": 10818,
      "Joint": 10819,
      "lic": 10820,
      "ession": 10821,
      "about": 10822,
      "ative": 10823,
      "ection": 10824,
      "pend": 10825,
      "bu": 10826,
      "AL": 10827,
      "ec": 10828,
      "ific": 10829,
      "Science": 10830,
      "med": 10831,
      "ident": 10832,
      "appro": 10833,
      "irc": 10834,
      "ms": 10835,
      "US": 10836,
      "ences": 10837,
      "ied": 10838,
      "II": 10839,
      "50": 10840,
      "pur": 10841,
      "By": 10842,
      "los": 10843,
      "ral": 10844,
      "students": 10845,
      "History": 10846,
      "istr": 10847,
      "bet": 10848,
      "ten": 10849,
      "र्": 10850,
      "des": 10851,
      "alth": 10852,
      "spe": 10853,
      "start": 10854,
      "Vi": 10855,
      "English": 10856,
      "Papers": 10857,
      "amp": 10858,
      "sc": 10859,
      "arge": 10860,
      "ix": 10861,
      "PD": 10862,
      "Exam": 10863,
      "Call": 10864,
      "mem": 10865,
      "load": 10866,
      "sol": 10867,
      "Us": 10868,
      "istry": 10869,
      "urn": 10870,
      "inter": 10871,
      ":-": 10872,
      "air": 10873,
      "Feb": 10874,
      "like": 10875,
      "dif": 10876,
      "Program": 10877,
      "AT": 10878,
      "formation": 10879,
      "ng": 10880,
      "there": 10881,
      "mon": 10882,
      "odal": 10883,
      "when": 10884,
      "ines": 10885,
      "puty": 10886,
      "ala": 10887,
      "ose": 10888,
      "these": 10889,
      "ination": 10890,
      "plement": 10891,
      "Deputy": 10892,
      "fl": 10893,
      "ours": 10894,
      "AC": 10895,
      "ty": 10896,
      "pres": 10897,
      "ward": 10898,
      "ized": 10899,
      "some": 10900,
      "comp": 10901,
      "National": 10902,
      "arr": 10903,
      "ures": 10904,
      "lease": 10905,
      "duct": 10906,
      "Le": 10907,
      "need": 10908,
      "And": 10909,
      "get": 10910,
      "giv": 10911,
      "Co": 10912,
      "pub": 10913,
      "Jan": 10914,
      "Me": 10915,
      "21": 10916,
      "ode": 10917,
      "Authority": 10918,
      "27": 10919,
      "Is": 10920,
      "fun": 10921,
      "Appl": 10922,
      "Fr": 10923,
      "ret": 10924,
      "Conference": 10925,
      "रा": 10926,
      "person": 10927,
      "Hand": 10928,
      "overnment": 10929,
      "Hospital": 10930,
      "exam": 10931,
      "ink": 10932,
      "ble": 10933,
      "Gu": 10934,
      "cons": 10935,
      "tal": 10936,
      "trans": 10937,
      "used": 10938,
      "rap": 10939,
      "04": 10940,
      "hist": 10941,
      "Ab": 10942,
      "Bo": 10943,
      "Payment": 10944,
      "sup": 10945,
      "ons": 10946,
      "View": 10947,
      "chn": 10948,
      "August": 10949,
      "29": 10950,
      "sit": 10951,
      "two": 10952,
      "only": 10953,
      "Nodal": 10954,
      "bers": 10955,
      "them": 10956,
      "06": 10957,
      "ta": 10958,
      "various": 10959,
      "anguage": 10960,
      "cept": 10961,
      "ules": 10962,
      "pen": 10963,
      "peri": 10964,
      "ced": 10965,
      "RE": 10966,
      "graduate": 10967,
      "So": 10968,
      "ert": 10969,
      "ople": 10970,
      "png": 10971,
      "Liter": 10972,
      "had": 10973,
      "land": 10974,
      "cal": 10975,
      "vent": 10976,
      "36": 10977,
      "ता": 10978,
      "includ": 10979,
      "ploye": 10980,
      "ants": 10981,
      "Sub": 10982,
      "lab": 10983,
      "Reg": 10984,
      "antra": 10985,
      "ca": 10986,
      "come": 10987,
      "thing": 10988,
      "stand": 10989,
      "CI": 10990,
      "Anim": 10991,
      "vers": 10992,
      "ann": 10993,
      "said": 10994,
      "vide": 10995,
      "Hindi": 10996,
      "would": 10997,
      "should": 10998,
      "Ur": 10999,
      "crip": 11000,
      "were": 11001,
      "ime": 11002,
      "Sw": 11003,
      "high": 11004,
      "Buddhist": 11005,
      "ting": 11006,
      "ress": 11007,
      "Yog": 11008,
      "shop": 11009,
      "az": 11010,
      "hys": 11011,
      "05": 11012,
      "Ne": 11013,
      "ator": 11014,
      "Bi": 11015,
      "ruit": 11016,
      "uary": 11017,
      "most": 11018,
      "03": 11019,
      "icy": 11020,
      "bur": 11021,
      "kill": 11022,
      "vol": 11023,
      "वि": 11024,
      "ownload": 11025,
      "Cal": 11026,
      "On": 11027,
      "||": 11028,
      "top": 11029,
      "constitution": 11030,
      "January": 11031,
      "after": 11032,
      "mod": 11033,
      "ati": 11034,
      "equ": 11035,
      "Serv": 11036,
      "श्": 11037,
      "vision": 11038,
      "iness": 11039,
      "All": 11040,
      "TION": 11041,
      "name": 11042,
      "tra": 11043,
      "sch": 11044,
      "cour": 11045,
      "ize": 11046,
      "agement": 11047,
      "rish": 11048,
      "ired": 11049,
      "els": 11050,
      "cle": 11051,
      "Fin": 11052,
      "Di": 11053,
      "LL": 11054,
      "ins": 11055,
      "number": 11056,
      "uring": 11057,
      "ds": 11058,
      "Mo": 11059,
      "Lear": 11060,
      "wer": 11061,
      "ara": 11062,
      "build": 11063,
      "76": 11064,
      "31": 11065,
      "where": 11066,
      "Mod": 11067,
      "such": 11068,
      "भा": 11069,
      "Yoga": 11070,
      "ability": 11071,
      "ef": 11072,
      "vert": 11073,
      "may": 11074,
      "pecial": 11075,
      "Rel": 11076,
      "Page": 11077,
      "each": 11078,
      "see": 11079,
      "ric": 11080,
      "sy": 11081,
      "Part": 11082,
      "Post": 11083,
      "Medical": 11084,
      "ily": 11085,
      "Solution": 11086,
      "col": 11087,
      "2022": 11088,
      "co": 11089,
      "न्": 11090,
      "CH": 11091,
      "ible": 11092,
      "ircular": 11093,
      "find": 11094,
      "Go": 11095,
      "related": 11096,
      "Central": 11097,
      "try": 11098,
      "Students": 11099,
      "Cor": 11100,
      "vid": 11101,
      "ibr": 11102,
      "Par": 11103,
      "then": 11104,
      "Press": 11105,
      "Dis": 11106,
      "organ": 11107,
      "appl": 11108,
      "San": 11109,
      "car": 11110,
      "van": 11111,
      "help": 11112,
      "Law": 11113,
      "aster": 11114,
      "given": 11115,
      "EN": 11116,
      "apter": 11117,
      "move": 11118,
      "plementation": 11119,
      ".,": 11120,
      "ember": 11121,
      "Trans": 11122,
      "hand": 11123,
      "Krish": 11124,
      "cture": 11125,
      "Work": 11126,
      "angal": 11127,
      "________": 11128,
      "ium": 11129,
      "cus": 11130,
      "back": 11131,
      "Ass": 11132,
      "To": 11133,
      "Health": 11134,
      "ony": 11135,
      "cond": 11136,
      "ief": 11137,
      "ories": 11138,
      "Mus": 11139,
      "स्": 11140,
      "ween": 11141,
      "ives": 11142,
      "fore": 11143,
      "app": 11144,
      "How": 11145,
      "Bod": 11146,
      "aly": 11147,
      "Apr": 11148,
      "date": 11149,
      "elfare": 11150,
      "usiness": 11151,
      "project": 11152,
      "Expl": 11153,
      "ren": 11154,
      "ai": 11155,
      "set": 11156,
      "SS": 11157,
      "Pur": 11158,
      "Handling": 11159,
      "Circular": 11160,
      "angalore": 11161,
      "und": 11162,
      "andid": 11163,
      "Pre": 11164,
      "40": 11165,
      "ave": 11166,
      "what": 11167,
      "Shiva": 11168,
      "trol": 11169,
      "~~": 11170,
      "Educ": 11171,
      "eff": 11172,
      "Krishna": 11173,
      "cludes": 11174,
      "CO": 11175,
      "Plan": 11176,
      "//": 11177,
      "ges": 11178,
      "being": 11179,
      "bel": 11180,
      "main": 11181,
      "bl": 11182,
      "ving": 11183,
      "ancial": 11184,
      "Febru": 11185,
      "ति": 11186,
      "iring": 11187,
      "February": 11188,
      "war": 11189,
      "between": 11190,
      "ban": 11191,
      "Know": 11192,
      "system": 11193,
      "sement": 11194,
      "lection": 11195,
      "ployees": 11196,
      "aff": 11197,
      "case": 11198,
      "Per": 11199,
      "Arch": 11200,
      "people": 11201,
      "ale": 11202,
      "sur": 11203,
      "imbur": 11204,
      "Education": 11205,
      "uk": 11206,
      "NE": 11207,
      "aching": 11208,
      "Sup": 11209,
      "Quest": 11210,
      "anes": 11211,
      "li": 11212,
      "det": 11213,
      "Camp": 11214,
      "imbursement": 11215,
      "first": 11216,
      "cell": 11217,
      "rate": 11218,
      "reat": 11219,
      "ases": 11220,
      "light": 11221,
      "rop": 11222,
      "osystem": 11223,
      "acy": 11224,
      "post": 11225,
      "know": 11226,
      "Ext": 11227,
      "development": 11228,
      "public": 11229,
      "filter": 11230,
      "order": 11231,
      "Includes": 11232,
      "Home": 11233,
      "every": 11234,
      "ify": 11235,
      "vir": 11236,
      "Image": 11237,
      "acc": 11238,
      "cm": 11239,
      "mit": 11240,
      "Sil": 11241,
      "avail": 11242,
      "while": 11243,
      "ner": 11244,
      "Chem": 11245,
      "requ": 11246,
      "ouse": 11247,
      "just": 11248,
      "using": 11249,
      "ery": 11250,
      "red": 11251,
      "ES": 11252,
      "life": 11253,
      "Des": 11254,
      "gu": 11255,
      "Lab": 11256,
      "WE": 11257,
      "75": 11258,
      "cap": 11259,
      "Government": 11260,
      "Pension": 11261,
      "IT": 11262,
      "how": 11263,
      "tar": 11264,
      "count": 11265,
      "ural": 11266,
      "Section": 11267,
      "AP": 11268,
      "thod": 11269,
      "April": 11270,
      "years": 11271,
      "CP": 11272,
      "Min": 11273,
      "tak": 11274,
      "PDF": 11275,
      "well": 11276,
      "**": 11277,
      "Learning": 11278,
      "Books": 11279,
      "la": 11280,
      "class": 11281,
      "99": 11282,
      "Literature": 11283,
      "une": 11284,
      "trib": 11285,
      "differ": 11286,
      "clos": 11287,
      "ering": 11288,
      "ilos": 11289,
      "questions": 11290,
      "प्र": 11291,
      "Elect": 11292,
      "\")": 11293,
      "ilosop": 11294,
      "gen": 11295,
      "ele": 11296,
      "Comput": 11297,
      "Day": 11298,
      "ited": 11299,
      "aim": 11300,
      "igital": 11301,
      "Institut": 11302,
      "ications": 11303,
      "ita": 11304,
      "Bangalore": 11305,
      "Sansh": 11306,
      "100": 11307,
      "empan": 11308,
      "leshan": 11309,
      "Sanshleshan": 11310,
      "img": 11311,
      "Open": 11312,
      "ograp": 11313,
      "depend": 11314,
      "play": 11315,
      "Song": 11316,
      "ots": 11317,
      "endar": 11318,
      "sing": 11319,
      "ised": 11320,
      "ior": 11321,
      "DA": 11322,
      "tern": 11323,
      "ali": 11324,
      "Han": 11325,
      "candid": 11326,
      "का": 11327,
      "35": 11328,
      "members": 11329,
      "mer": 11330,
      "process": 11331,
      "omen": 11332,
      "uru": 11333,
      "ah": 11334,
      "look": 11335,
      "Jul": 11336,
      "हि": 11337,
      "site": 11338,
      "wards": 11339,
      "vertise": 11340,
      "Download": 11341,
      "Be": 11342,
      "Start": 11343,
      "anking": 11344,
      "right": 11345,
      "्य": 11346,
      "gy": 11347,
      "AI": 11348,
      "Ved": 11349,
      "char": 11350,
      "Undergraduate": 11351,
      "Admission": 11352,
      "way": 11353,
      "gener": 11354,
      "vest": 11355,
      "Express": 11356,
      "Welfare": 11357,
      "Add": 11358,
      "WEB": 11359,
      "files": 11360,
      "Cha": 11361,
      "Paint": 11362,
      "unity": 11363,
      "less": 11364,
      "?)": 11365,
      "mark": 11366,
      "NCWEB": 11367,
      "comple": 11368,
      "ads": 11369,
      "Cut": 11370,
      "import": 11371,
      "Ganes": 11372,
      "fac": 11373,
      "Advertise": 11374,
      "Mal": 11375,
      "rat": 11376,
      "Policy": 11377,
      "60": 11378,
      "page": 11379,
      "ctions": 11380,
      "erce": 11381,
      "March": 11382,
      "qual": 11383,
      "Language": 11384,
      "Session": 11385,
      "song": 11386,
      "ems": 11387,
      "Tantra": 11388,
      "elled": 11389,
      "Up": 11390,
      "here": 11391,
      "good": 11392,
      "Sha": 11393,
      "rent": 11394,
      "Ganesha": 11395,
      "ious": 11396,
      "down": 11397,
      "Notice": 11398,
      "Philosop": 11399,
      "---": 11400,
      "allot": 11401,
      "MP": 11402,
      "met": 11403,
      "Att": 11404,
      "hiring": 11405,
      "ict": 11406,
      "Deanship": 11407,
      "cript": 11408,
      "pect": 11409,
      "conom": 11410,
      "gest": 11411,
      "due": 11412,
      "Mon": 11413,
      "Rules": 11414,
      "different": 11415,
      "present": 11416,
      "self": 11417,
      "Ge": 11418,
      "Ay": 11419,
      "Contin": 11420,
      "section": 11421,
      "partic": 11422,
      "My": 11423,
      "ource": 11424,
      "che": 11425,
      "show": 11426,
      "sell": 11427,
      "Pan": 11428,
      "ond": 11429,
      "Last": 11430,
      "curity": 11431,
      "colle": 11432,
      "recruit": 11433,
      "Fore": 11434,
      "oring": 11435,
      "Special": 11436,
      "Cour": 11437,
      "Libr": 11438,
      "web": 11439,
      "AS": 11440,
      "take": 11441,
      "astr": 11442,
      "value": 11443,
      "44": 11444,
      "USU": 11445,
      "Sciences": 11446,
      "cause": 11447,
      "ever": 11448,
      "ove": 11449,
      "duction": 11450,
      "Commerce": 11451,
      "DUSU": 11452,
      "make": 11453,
      "Release": 11454,
      "atch": 11455,
      "----": 11456,
      "May": 11457,
      "ended": 11458,
      "School": 11459,
      "pie": 11460,
      "world": 11461,
      "ecture": 11462,
      "ser": 11463,
      "viron": 11464,
      "inal": 11465,
      "Bha": 11466,
[...]
